<pad>	0
<unk>	0
<s>	0
</s>	0
▁t	-0
ou	-1
▁d	-2
▁a	-3
re	-4
▁i	-5
▁p	-6
▁s	-7
▁c	-8
on	-9
▁l	-10
es	-11
en	-12
ai	-13
▁m	-14
er	-15
▁th	-16
▁to	-17
▁w	-18
▁n	-19
▁j	-20
▁h	-21
an	-22
qu	-23
▁y	-24
▁f	-25
in	-26
as	-27
▁you	-28
▁v	-29
is	-30
▁b	-31
at	-32
ll	-33
▁qu	-34
▁de	-35
▁the	-36
ar	-37
▁je	-38
ous	-39
ve	-40
or	-41
▁tom	-42
ent	-43
est	-44
it	-45
un	-46
▁que	-47
om	-48
▁g	-49
ing	-50
▁pas	-51
ais	-52
et	-53
ed	-54
▁ne	-55
eu	-56
le	-57
us	-58
▁le	-59
▁un	-60
▁la	-61
▁o	-62
ant	-63
ont	-64
▁e	-65
our	-66
ot	-67
▁re	-68
▁do	-69
ri	-70
▁à	-71
te	-72
▁me	-73
oi	-74
▁wh	-75
ait	-76
ch	-77
▁is	-78
▁su	-79
se	-80
▁he	-81
▁that	-82
ro	-83
▁in	-84
▁ch	-85
▁vous	-86
▁ha	-87
▁be	-88
ce	-89
▁en	-90
▁ce	-91
▁we	-92
▁est	-93
ow	-94
me	-95
▁il	-96
ay	-97
▁it	-98
id	-99
nt	-100
il	-101
ion	-102
▁tr	-103
lle	-104
out	-105
▁an	-106
▁tu	-107
▁of	-108
ét	-109
au	-110
▁com	-111
ment	-112
▁r	-113
al	-114
ke	-115
▁pl	-116
▁te	-117
▁on	-118
ld	-119
▁li	-120
▁se	-121
ver	-122
▁pour	-123
st	-124
▁im	-125
▁nous	-126
▁this	-127
▁sh	-128
pp	-129
ie	-130
▁par	-131
▁dont	-132
▁jai	-133
▁for	-134
▁was	-135
▁st	-136
ir	-137
gh	-138
▁go	-139
▁k	-140
ain	-141
eux	-142
▁have	-143
ut	-144
▁les	-145
ons	-146
êt	-147
ic	-148
▁une	-149
res	-150
ad	-151
▁my	-152
▁what	-153
and	-154
▁are	-155
end	-156
ag	-157
aire	-158
av	-159
▁your	-160
▁ét	-161
▁not	-162
▁as	-163
im	-164
ill	-165
am	-166
ght	-167
ould	-168
ble	-169
▁kn	-170
onn	-171
▁did	-172
▁au	-173
▁want	-174
vous	-175
▁suis	-176
▁at	-177
ans	-178
▁all	-179
▁pr	-180
ol	-181
▁mar	-182
ci	-183
▁dé	-184
▁ma	-185
os	-186
▁mon	-187
ct	-188
ien	-189
▁know	-190
ça	-191
oir	-192
ée	-193
ère	-194
all	-195
▁ça	-196
que	-197
▁faire	-198
▁so	-199
▁som	-200
ore	-201
▁cest	-202
▁ave	-203
▁pro	-204
ang	-205
ren	-206
ter	-207
▁av	-208
▁lo	-209
▁des	-210
▁pen	-211
mp	-212
ith	-213
zvous	-214
ly	-215
▁di	-216
ard	-217
▁with	-218
ink	-219
ers	-220
ok	-221
▁êt	-222
▁can	-223
od	-224
eur	-225
▁like	-226
▁tout	-227
ur	-228
▁dans	-229
▁fr	-230
ff	-231
▁ta	-232
ort	-233
pe	-234
one	-235
▁plus	-236
ust	-237
hing	-238
up	-239
▁ri	-240
▁she	-241
ac	-242
ig	-243
ess	-244
▁ex	-245
▁were	-246
▁fait	-247
▁quel	-248
▁think	-249
▁ar	-250
de	-251
▁qui	-252
▁elle	-253
ure	-254
ès	-255
▁sa	-256
▁no	-257
are	-258
▁ab	-259
▁youre	-260
ong	-261
▁they	-262
ez	-263
▁ti	-264
▁any	-265
ose	-266
▁how	-267
▁his	-268
▁sur	-269
ui	-270
rai	-271
▁veux	-272
▁si	-273
her	-274
▁du	-275
▁al	-276
▁bo	-277
▁ré	-278
▁its	-279
ul	-280
oin	-281
▁con	-282
▁é	-283
ist	-284
▁am	-285
ation	-286
la	-287
▁dev	-288
▁cet	-289
▁wor	-290
ouv	-291
▁ver	-292
▁get	-293
▁ever	-294
▁mary	-295
▁avec	-296
▁comp	-297
ap	-298
▁nest	-299
bl	-300
ier	-301
▁us	-302
el	-303
▁and	-304
▁peu	-305
▁co	-306
dre	-307
▁here	-308
▁quil	-309
▁et	-310
ue	-311
▁part	-312
▁sont	-313
▁time	-314
onne	-315
▁him	-316
▁about	-317
mps	-318
ate	-319
age	-320
és	-321
ite	-322
▁didnt	-323
si	-324
▁dis	-325
▁app	-326
cc	-327
ast	-328
▁pense	-329
▁cette	-330
▁vou	-331
▁cant	-332
▁very	-333
▁nai	-334
▁let	-335
oup	-336
ux	-337
mes	-338
▁dit	-339
▁fe	-340
ind	-341
op	-342
ere	-343
▁see	-344
▁sais	-345
▁there	-346
ours	-347
▁out	-348
▁up	-349
▁need	-350
▁every	-351
ally	-352
▁man	-353
▁très	-354
▁pers	-355
▁cela	-356
▁peux	-357
▁son	-358
▁êtes	-359
▁going	-360
▁ser	-361
ouve	-362
▁dem	-363
▁vot	-364
ive	-365
uis	-366
▁happ	-367
▁will	-368
▁has	-369
ine	-370
▁mais	-371
▁moi	-372
der	-373
▁cl	-374
ois	-375
▁tou	-376
ille	-377
rais	-378
aut	-379
▁would	-380
ry	-381
▁why	-382
▁had	-383
▁one	-384
▁temps	-385
▁ill	-386
ase	-387
▁look	-388
▁just	-389
ave	-390
▁gr	-391
▁était	-392
quoi	-393
▁pourquoi	-394
ens	-395
▁votre	-396
▁être	-397
▁pens	-398
▁été	-399
day	-400
ud	-401
▁could	-402
alk	-403
▁if	-404
▁id	-405
▁vrai	-406
▁her	-407
▁ag	-408
ight	-409
ought	-410
je	-411
che	-412
▁should	-413
▁quest	-414
ions	-415
pr	-416
▁some	-417
ne	-418
▁jam	-419
▁ici	-420
▁hel	-421
▁ton	-422
▁chose	-423
▁long	-424
ak	-425
▁help	-426
▁good	-427
able	-428
▁tro	-429
nd	-430
ance	-431
thing	-432
eure	-433
▁cont	-434
▁ple	-435
▁does	-436
mer	-437
tu	-438
▁bien	-439
▁work	-440
▁parl	-441
▁who	-442
▁ent	-443
▁jamais	-444
▁lai	-445
lles	-446
▁ive	-447
▁beau	-448
ice	-449
▁tell	-450
▁comment	-451
art	-452
▁hom	-453
avai	-454
ide	-455
ays	-456
▁ils	-457
▁att	-458
ack	-459
ach	-460
▁travai	-461
if	-462
▁than	-463
▁thats	-464
▁dire	-465
éc	-466
ass	-467
ck	-468
▁when	-469
▁es	-470
▁na	-471
oy	-472
▁lui	-473
▁estce	-474
uit	-475
▁où	-476
▁pass	-477
ra	-478
▁per	-479
mb	-480
ière	-481
ress	-482
ish	-483
▁come	-484
▁imp	-485
ade	-486
▁br	-487
▁from	-488
▁really	-489
▁got	-490
une	-491
▁diff	-492
▁pren	-493
▁res	-494
▁sav	-495
▁vraiment	-496
▁car	-497
ise	-498
▁quelque	-499
▁by	-500
coup	-501
▁beaucoup	-502
▁ai	-503
ors	-504
stu	-505
lf	-506
▁pe	-507
▁toi	-508
▁ca	-509
▁somet	-510
rit	-511
ep	-512
▁ro	-513
▁bes	-514
▁been	-515
▁ad	-516
▁take	-517
▁personne	-518
▁talk	-519
▁please	-520
anger	-521
moi	-522
▁off	-523
▁besoin	-524
wn	-525
ête	-526
▁seu	-527
▁tous	-528
▁never	-529
ven	-530
▁bl	-531
orte	-532
▁vi	-533
arg	-534
▁now	-535
▁train	-536
▁arri	-537
use	-538
▁thought	-539
▁rest	-540
ré	-541
▁where	-542
riend	-543
▁int	-544
▁demand	-545
▁or	-546
▁fin	-547
iez	-548
▁peut	-549
▁more	-550
él	-551
▁sp	-552
ner	-553
▁bus	-554
▁rien	-555
app	-556
▁pre	-557
▁voul	-558
▁sest	-559
ôt	-560
ree	-561
ound	-562
▁mai	-563
▁something	-564
▁lais	-565
orm	-566
▁mu	-567
▁mo	-568
iss	-569
▁fer	-570
▁liv	-571
▁ont	-572
▁avons	-573
▁pla	-574
ire	-575
▁too	-576
▁mat	-577
▁but	-578
▁mal	-579
▁fais	-580
▁mes	-581
▁much	-582
▁quelqu	-583
▁af	-584
ile	-585
▁aut	-586
▁ret	-587
▁spe	-588
bre	-589
▁sommes	-590
▁bu	-591
▁comm	-592
▁ask	-593
▁happen	-594
▁eat	-595
être	-596
▁parler	-597
▁sil	-598
▁sem	-599
▁jus	-600
▁home	-601
▁ou	-602
▁exp	-603
▁ren	-604
▁quelle	-605
ign	-606
ange	-607
▁astu	-608
▁read	-609
▁va	-610
▁enc	-611
▁pré	-612
▁isnt	-613
▁reg	-614
row	-615
était	-616
um	-617
▁cr	-618
ody	-619
ées	-620
▁make	-621
▁right	-622
▁pos	-623
▁aller	-624
▁say	-625
jours	-626
▁toujours	-627
ert	-628
lement	-629
▁che	-630
ants	-631
▁back	-632
other	-633
▁maison	-634
▁last	-635
▁trop	-636
▁quand	-637
▁grand	-638
▁ven	-639
▁deux	-640
▁mont	-641
▁friend	-642
▁là	-643
▁well	-644
ab	-645
itt	-646
tre	-647
sez	-648
▁vo	-649
ence	-650
ey	-651
▁déc	-652
ick	-653
vent	-654
▁bon	-655
▁vais	-656
▁comme	-657
pt	-658
ême	-659
ient	-660
ique	-661
▁fo	-662
body	-663
▁pouv	-664
▁fat	-665
ge	-666
▁encore	-667
▁éc	-668
▁monde	-669
▁fran	-670
▁ke	-671
▁pi	-672
▁jour	-673
▁heure	-674
ité	-675
▁anything	-676
ds	-677
▁enf	-678
▁thing	-679
▁«	-680
ston	-681
rer	-682
▁»	-683
▁cou	-684
▁avezvous	-685
rait	-686
▁acc	-687
▁quoi	-688
aid	-689
▁money	-690
▁boston	-691
▁lot	-692
▁pri	-693
▁new	-694
▁bet	-695
▁dr	-696
self	-697
▁voir	-698
▁nouve	-699
▁dois	-700
▁sure	-701
▁voit	-702
▁comb	-703
▁feel	-704
▁fa	-705
▁ten	-706
éri	-707
fe	-708
▁day	-709
▁book	-710
jour	-711
rench	-712
▁doesnt	-713
çais	-714
▁ho	-715
▁conn	-716
▁wat	-717
▁french	-718
▁again	-719
▁êtesvous	-720
▁wr	-721
ussi	-722
▁fl	-723
ern	-724
▁gu	-725
▁français	-726
▁faut	-727
oire	-728
▁ph	-729
▁ans	-730
▁our	-731
▁give	-732
ars	-733
▁veu	-734
ild	-735
red	-736
▁told	-737
▁puis	-738
▁bel	-739
▁min	-740
▁love	-741
▁peop	-742
cher	-743
▁avoir	-744
aine	-745
ried	-746
ough	-747
▁people	-748
ning	-749
▁jo	-750
▁combien	-751
▁under	-752
▁eu	-753
▁stay	-754
▁supp	-755
▁elles	-756
ît	-757
▁speak	-758
ies	-759
hui	-760
imp	-761
▁today	-762
du	-763
étais	-764
ouse	-765
▁rép	-766
iens	-767
▁soit	-768
▁diffic	-769
▁pensais	-770
▁voiture	-771
jourd	-772
▁still	-773
▁donn	-774
▁met	-775
▁lets	-776
▁many	-777
▁pu	-778
▁dés	-779
▁ye	-780
▁prom	-781
jourdhui	-782
▁pol	-783
▁call	-784
▁cro	-785
▁must	-786
▁try	-787
▁maint	-788
nts	-789
▁said	-790
ord	-791
▁vie	-792
▁regard	-793
▁avez	-794
ten	-795
▁fois	-796
▁way	-797
argent	-798
▁sou	-799
▁ess	-800
▁lh	-801
▁pet	-802
▁rec	-803
▁ses	-804
▁mainten	-805
oth	-806
ante	-807
▁jou	-808
▁may	-809
▁plan	-810
▁avait	-811
ese	-812
▁aussi	-813
▁travail	-814
air	-815
▁only	-816
▁aujourdhui	-817
▁wait	-818
▁vu	-819
▁ter	-820
▁pare	-821
estu	-822
▁doing	-823
▁made	-824
▁maintenant	-825
ème	-826
gl	-827
aient	-828
▁sm	-829
ft	-830
▁lair	-831
▁whats	-832
chet	-833
▁old	-834
eurs	-835
ieve	-836
▁cour	-837
▁marie	-838
vé	-839
▁fam	-840
▁déj	-841
▁déjà	-842
▁pris	-843
merais	-844
▁probl	-845
▁ces	-846
ool	-847
▁question	-848
endre	-849
▁care	-850
▁sû	-851
ult	-852
ways	-853
▁over	-854
▁ny	-855
▁always	-856
ole	-857
orrow	-858
▁nom	-859
▁juste	-860
▁stud	-861
ieux	-862
▁house	-863
▁dét	-864
▁better	-865
ves	-866
ph	-867
▁op	-868
▁tw	-869
▁vis	-870
ident	-871
ction	-872
▁dern	-873
int	-874
▁wont	-875
▁sent	-876
▁jaimerais	-877
▁lun	-878
▁aw	-879
▁sch	-880
▁sec	-881
▁play	-882
▁down	-883
▁jétais	-884
▁même	-885
rive	-886
▁tai	-887
▁mom	-888
▁child	-889
iqu	-890
itu	-891
▁seul	-892
oint	-893
▁rep	-894
▁ceci	-895
▁leave	-896
get	-897
élé	-898
vers	-899
▁pouve	-900
▁porte	-901
▁parents	-902
▁believe	-903
▁cétait	-904
▁everything	-905
ek	-906
▁hes	-907
▁mé	-908
▁nav	-909
▁pay	-910
▁went	-911
fore	-912
▁happy	-913
▁quelquun	-914
▁chez	-915
anc	-916
▁hard	-917
▁before	-918
▁put	-919
▁cons	-920
ezvous	-921
▁litt	-922
iz	-923
née	-924
▁room	-925
▁them	-926
près	-927
▁after	-928
▁souv	-929
▁job	-930
▁arr	-931
ty	-932
▁week	-933
▁gl	-934
▁télé	-935
▁hand	-936
▁little	-937
▁night	-938
▁rem	-939
ond	-940
▁conf	-941
ret	-942
aux	-943
ils	-944
ved	-945
▁ot	-946
blem	-947
▁notre	-948
▁problem	-949
ié	-950
▁left	-951
▁theres	-952
▁compl	-953
▁school	-954
▁trou	-955
▁sw	-956
min	-957
▁occ	-958
xt	-959
be	-960
▁trois	-961
▁achet	-962
▁tes	-963
▁underst	-964
▁sort	-965
▁moment	-966
ider	-967
▁hier	-968
▁cha	-969
mber	-970
▁sans	-971
▁mieux	-972
▁connais	-973
▁prendre	-974
▁bonne	-975
ful	-976
▁buy	-977
▁compren	-978
endu	-979
▁done	-980
▁wanted	-981
leep	-982
reat	-983
▁prop	-984
pect	-985
▁tomorrow	-986
né	-987
▁livre	-988
asse	-989
▁demain	-990
ention	-991
▁dog	-992
▁bec	-993
▁emp	-994
▁seem	-995
▁simp	-996
▁plaît	-997
▁three	-998
▁stop	-999
▁essay	-1000
ict	-1001
▁hope	-1002
▁dep	-1003
▁find	-1004
▁soir	-1005
▁assez	-1006
▁nothing	-1007
▁sc	-1008
▁auc	-1009
▁fut	-1010
att	-1011
▁pres	-1012
sible	-1013
▁keep	-1014
▁problème	-1015
ester	-1016
▁understand	-1017
▁surpr	-1018
▁happened	-1019
▁hur	-1020
▁disc	-1021
▁voule	-1022
read	-1023
tement	-1024
▁laiss	-1025
▁cert	-1026
▁estu	-1027
▁père	-1028
▁import	-1029
ity	-1030
▁dav	-1031
▁jap	-1032
enc	-1033
▁po	-1034
▁toutes	-1035
act	-1036
▁dou	-1037
kes	-1038
▁aim	-1039
▁these	-1040
▁enough	-1041
▁manger	-1042
▁env	-1043
▁dû	-1044
▁rais	-1045
▁inte	-1046
▁avant	-1047
▁dun	-1048
▁start	-1049
▁ass	-1050
rist	-1051
▁end	-1052
▁youve	-1053
▁devrais	-1054
▁inv	-1055
▁après	-1056
uss	-1057
▁mus	-1058
▁into	-1059
père	-1060
▁tur	-1061
▁nestce	-1062
fé	-1063
gn	-1064
iv	-1065
▁mor	-1066
▁trouv	-1067
▁yester	-1068
▁yesterday	-1069
▁two	-1070
oses	-1071
▁christ	-1072
▁friends	-1073
▁gens	-1074
▁sor	-1075
ated	-1076
▁expl	-1077
▁alone	-1078
ici	-1079
mas	-1080
▁enfants	-1081
▁dép	-1082
auv	-1083
ains	-1084
▁léc	-1085
vez	-1086
▁coup	-1087
▁disp	-1088
▁christmas	-1089
▁aux	-1090
▁conc	-1091
▁cher	-1092
▁drink	-1093
êtes	-1094
▁dêtre	-1095
▁sorry	-1096
▁puisje	-1097
▁ide	-1098
▁vol	-1099
▁place	-1100
ets	-1101
rest	-1102
▁men	-1103
▁toute	-1104
eures	-1105
▁cat	-1106
nous	-1107
▁choses	-1108
▁ob	-1109
▁teach	-1110
ros	-1111
▁bou	-1112
▁savoir	-1113
erre	-1114
▁occup	-1115
▁meet	-1116
▁parle	-1117
▁dec	-1118
▁turn	-1119
▁other	-1120
▁things	-1121
▁atil	-1122
▁late	-1123
▁mer	-1124
ents	-1125
▁passé	-1126
▁travaill	-1127
▁inc	-1128
▁toms	-1129
▁saw	-1130
ision	-1131
▁arent	-1132
▁partir	-1133
ition	-1134
▁fai	-1135
llement	-1136
▁petit	-1137
▁wasnt	-1138
▁désol	-1139
▁table	-1140
▁asked	-1141
ager	-1142
▁lang	-1143
▁show	-1144
▁nar	-1145
▁act	-1146
▁sûr	-1147
▁watch	-1148
▁rester	-1149
▁questce	-1150
▁away	-1151
▁theyre	-1152
▁wrong	-1153
ett	-1154
ffe	-1155
▁jes	-1156
▁vos	-1157
▁nuit	-1158
▁étud	-1159
▁police	-1160
▁next	-1161
ary	-1162
▁cor	-1163
▁ref	-1164
▁fu	-1165
▁chien	-1166
▁father	-1167
irst	-1168
▁voulais	-1169
▁sleep	-1170
▁everyone	-1171
cont	-1172
arn	-1173
▁lé	-1174
gg	-1175
▁exc	-1176
▁rencont	-1177
▁lu	-1178
▁pat	-1179
▁kne	-1180
▁heures	-1181
ys	-1182
ting	-1183
oc	-1184
▁sens	-1185
▁anyone	-1186
ente	-1187
ready	-1188
▁walk	-1189
▁point	-1190
▁already	-1191
▁quelques	-1192
▁ac	-1193
▁rend	-1194
▁fun	-1195
▁cond	-1196
▁hear	-1197
▁jaime	-1198
▁répon	-1199
▁answ	-1200
▁youd	-1201
▁gard	-1202
ute	-1203
iste	-1204
▁soon	-1205
▁busy	-1206
▁bad	-1207
▁devri	-1208
▁open	-1209
ake	-1210
▁kind	-1211
▁even	-1212
th	-1213
▁idea	-1214
▁live	-1215
▁savais	-1216
▁door	-1217
▁questions	-1218
ised	-1219
▁jespère	-1220
elle	-1221
▁sait	-1222
▁first	-1223
yez	-1224
▁dur	-1225
▁lécole	-1226
▁difficile	-1227
▁gir	-1228
▁knew	-1229
▁peur	-1230
▁list	-1231
▁children	-1232
mé	-1233
▁chance	-1234
og	-1235
▁fi	-1236
▁dernière	-1237
▁life	-1238
▁important	-1239
di	-1240
▁came	-1241
▁reme	-1242
▁dargent	-1243
▁venir	-1244
▁fem	-1245
▁ense	-1246
ché	-1247
cle	-1248
qui	-1249
▁havent	-1250
▁mind	-1251
▁their	-1252
ments	-1253
▁jours	-1254
▁without	-1255
▁yet	-1256
▁lors	-1257
omp	-1258
▁dune	-1259
▁veut	-1260
▁youll	-1261
jet	-1262
▁mot	-1263
▁rapp	-1264
▁daut	-1265
▁non	-1266
▁won	-1267
▁prob	-1268
▁gar	-1269
temps	-1270
▁semble	-1271
▁adv	-1272
▁hab	-1273
▁rent	-1274
ious	-1275
▁sho	-1276
▁ear	-1277
▁idée	-1278
ins	-1279
ger	-1280
illes	-1281
▁beca	-1282
▁phot	-1283
▁prof	-1284
▁ins	-1285
▁voy	-1286
▁thank	-1287
▁depuis	-1288
les	-1289
▁looking	-1290
raid	-1291
▁mère	-1292
idé	-1293
▁cham	-1294
▁being	-1295
▁cle	-1296
▁nouveau	-1297
utes	-1298
▁str	-1299
▁prêt	-1300
▁afraid	-1301
king	-1302
▁tôt	-1303
erai	-1304
▁din	-1305
▁change	-1306
ral	-1307
▁voud	-1308
▁used	-1309
▁remember	-1310
▁sat	-1311
ory	-1312
▁lost	-1313
▁tra	-1314
▁mauv	-1315
▁nêtes	-1316
▁dro	-1317
▁raison	-1318
▁best	-1319
▁water	-1320
▁mist	-1321
▁couldnt	-1322
phone	-1323
▁mauvais	-1324
rez	-1325
▁big	-1326
▁aider	-1327
ily	-1328
▁tired	-1329
cept	-1330
▁wish	-1331
▁simplement	-1332
▁el	-1333
▁fort	-1334
▁name	-1335
bles	-1336
arr	-1337
▁moin	-1338
lé	-1339
▁aff	-1340
▁years	-1341
endant	-1342
▁sol	-1343
ather	-1344
▁morning	-1345
igu	-1346
▁faites	-1347
euse	-1348
▁use	-1349
ats	-1350
ving	-1351
▁gave	-1352
▁stup	-1353
▁found	-1354
▁heureux	-1355
▁vé	-1356
▁seen	-1357
▁interest	-1358
▁heard	-1359
▁ready	-1360
▁minutes	-1361
▁took	-1362
aught	-1363
igh	-1364
▁autre	-1365
▁eas	-1366
▁bed	-1367
ations	-1368
▁reste	-1369
angé	-1370
▁voi	-1371
ale	-1372
aurais	-1373
▁inf	-1374
uire	-1375
▁rés	-1376
ost	-1377
▁same	-1378
▁answer	-1379
▁prem	-1380
▁trouver	-1381
ris	-1382
▁meill	-1383
acc	-1384
▁miss	-1385
▁seule	-1386
▁prés	-1387
▁mis	-1388
ends	-1389
▁often	-1390
jeun	-1391
▁rou	-1392
avais	-1393
▁crois	-1394
▁narrive	-1395
▁rev	-1396
imes	-1397
▁longtemps	-1398
▁matin	-1399
▁possible	-1400
▁entendu	-1401
vert	-1402
▁col	-1403
▁else	-1404
▁finish	-1405
mble	-1406
▁rain	-1407
▁tard	-1408
astu	-1409
▁ment	-1410
▁pouvez	-1411
▁run	-1412
▁contin	-1413
▁semaine	-1414
▁fil	-1415
▁demandé	-1416
▁cap	-1417
▁souvent	-1418
▁commenc	-1419
gry	-1420
ette	-1421
▁ann	-1422
▁port	-1423
▁fatigu	-1424
▁doct	-1425
▁mother	-1426
▁bro	-1427
▁sois	-1428
▁bre	-1429
ister	-1430
çon	-1431
▁aime	-1432
▁tomb	-1433
onsnous	-1434
▁pourrais	-1435
ital	-1436
▁amis	-1437
ath	-1438
▁difficult	-1439
ood	-1440
▁accident	-1441
▁looks	-1442
▁beg	-1443
▁sin	-1444
▁mort	-1445
▁peutêtre	-1446
ared	-1447
▁choi	-1448
▁sing	-1449
ome	-1450
ustral	-1451
ls	-1452
▁naime	-1453
▁sk	-1454
osed	-1455
▁piè	-1456
▁viv	-1457
▁someone	-1458
▁mag	-1459
▁jusqu	-1460
▁pendant	-1461
▁proch	-1462
▁croire	-1463
▁nu	-1464
▁pret	-1465
▁youn	-1466
▁rendre	-1467
▁largent	-1468
par	-1469
▁gen	-1470
▁dorm	-1471
erreur	-1472
▁javais	-1473
▁sen	-1474
▁cold	-1475
▁few	-1476
ually	-1477
▁both	-1478
▁leur	-1479
▁person	-1480
éress	-1481
▁yourself	-1482
▁certain	-1483
ia	-1484
▁quon	-1485
▁arrêt	-1486
▁veuxtu	-1487
▁vérit	-1488
ich	-1489
▁study	-1490
▁arrivé	-1491
▁trouvé	-1492
▁conv	-1493
▁devons	-1494
▁conse	-1495
▁count	-1496
▁knows	-1497
▁retard	-1498
▁gag	-1499
▁acheté	-1500
▁secret	-1501
▁femme	-1502
▁passer	-1503
rant	-1504
▁cam	-1505
▁voulezvous	-1506
▁soyez	-1507
lo	-1508
onnes	-1509
▁sera	-1510
lu	-1511
▁weve	-1512
▁fille	-1513
▁ami	-1514
▁great	-1515
▁myself	-1516
uses	-1517
▁hurt	-1518
▁might	-1519
▁true	-1520
▁gé	-1521
▁year	-1522
▁pai	-1523
▁able	-1524
▁perdu	-1525
▁bought	-1526
▁chambre	-1527
▁break	-1528
▁party	-1529
▁laisse	-1530
▁learn	-1531
arm	-1532
▁teacher	-1533
▁hot	-1534
▁nétait	-1535
ied	-1536
orter	-1537
▁fire	-1538
oid	-1539
uter	-1540
▁dist	-1541
▁swim	-1542
▁bless	-1543
▁passe	-1544
▁dautre	-1545
▁lin	-1546
▁sal	-1547
▁situ	-1548
▁ut	-1549
▁lit	-1550
▁perm	-1551
▁nen	-1552
▁nice	-1553
▁tour	-1554
èrent	-1555
▁désolé	-1556
more	-1557
aller	-1558
▁dent	-1559
▁beaut	-1560
▁trouve	-1561
▁wonder	-1562
▁parf	-1563
jeuner	-1564
▁everybody	-1565
▁glad	-1566
▁gros	-1567
▁around	-1568
▁wind	-1569
▁merci	-1570
▁talking	-1571
per	-1572
▁pourrait	-1573
▁sign	-1574
▁pouvezvous	-1575
ater	-1576
ote	-1577
▁emb	-1578
aper	-1579
ues	-1580
▁hun	-1581
▁deven	-1582
▁nombre	-1583
▁demande	-1584
▁oubl	-1585
▁retour	-1586
▁getting	-1587
ages	-1588
▁inter	-1589
vezvous	-1590
▁anymore	-1591
▁propos	-1592
▁abs	-1593
▁cal	-1594
▁peuxtu	-1595
▁homme	-1596
▁matter	-1597
▁attend	-1598
▁kid	-1599
led	-1600
most	-1601
▁danger	-1602
▁déb	-1603
▁food	-1604
▁lire	-1605
▁listen	-1606
▁tri	-1607
aires	-1608
▁wouldnt	-1609
▁intéress	-1610
ures	-1611
ères	-1612
pital	-1613
▁early	-1614
▁erreur	-1615
▁presque	-1616
00	-1617
▁sn	-1618
ches	-1619
pped	-1620
uth	-1621
▁wants	-1622
ip	-1623
▁fête	-1624
este	-1625
▁moins	-1626
▁nobody	-1627
▁ép	-1628
▁faci	-1629
▁those	-1630
▁another	-1631
▁austral	-1632
▁aucun	-1633
▁while	-1634
▁jouer	-1635
▁coming	-1636
▁because	-1637
▁étaient	-1638
▁lav	-1639
▁main	-1640
ited	-1641
▁chau	-1642
▁almost	-1643
▁expect	-1644
▁téléphone	-1645
ream	-1646
▁doit	-1647
▁days	-1648
▁chant	-1649
▁pensé	-1650
▁each	-1651
▁lorsque	-1652
▁mov	-1653
▁prie	-1654
▁viens	-1655
▁sau	-1656
riezvous	-1657
ces	-1658
▁tried	-1659
veill	-1660
▁vérité	-1661
▁attention	-1662
▁own	-1663
ered	-1664
▁alle	-1665
▁eff	-1666
▁truth	-1667
▁forg	-1668
▁aucune	-1669
▁café	-1670
▁appel	-1671
▁resp	-1672
▁bit	-1673
▁veuille	-1674
▁travailler	-1675
▁dir	-1676
▁japon	-1677
▁letter	-1678
▁situation	-1679
gether	-1680
▁forget	-1681
▁quit	-1682
▁coffe	-1683
▁pièce	-1684
▁japan	-1685
▁nes	-1686
▁journée	-1687
▁nouvelle	-1688
isé	-1689
▁famille	-1690
▁coffee	-1691
▁together	-1692
▁jen	-1693
▁win	-1694
▁entre	-1695
▁such	-1696
▁married	-1697
▁trying	-1698
ife	-1699
▁vois	-1700
▁young	-1701
ér	-1702
▁fau	-1703
▁engl	-1704
▁estil	-1705
▁sortir	-1706
▁ban	-1707
▁sujet	-1708
▁boy	-1709
▁mari	-1710
▁film	-1711
▁trust	-1712
▁write	-1713
iezvous	-1714
▁aide	-1715
▁enj	-1716
▁easy	-1717
accord	-1718
▁seems	-1719
▁chaque	-1720
▁jusquà	-1721
▁pouvoir	-1722
▁tonight	-1723
▁sy	-1724
ienne	-1725
▁shouldnt	-1726
▁mean	-1727
▁diffé	-1728
▁étais	-1729
ize	-1730
▁lét	-1731
llow	-1732
▁nour	-1733
▁mine	-1734
▁ville	-1735
▁beautif	-1736
ible	-1737
▁tenn	-1738
▁light	-1739
▁family	-1740
▁ey	-1741
▁bure	-1742
iser	-1743
▁once	-1744
▁enjoy	-1745
▁sl	-1746
▁rel	-1747
▁cook	-1748
antage	-1749
▁prend	-1750
▁working	-1751
▁sous	-1752
▁beautiful	-1753
ork	-1754
▁sé	-1755
iers	-1756
▁prod	-1757
▁continu	-1758
▁arg	-1759
iment	-1760
▁confi	-1761
▁sister	-1762
▁english	-1763
▁ner	-1764
▁fall	-1765
rendre	-1766
▁grande	-1767
▁frère	-1768
▁bureau	-1769
▁â	-1770
▁allé	-1771
▁termin	-1772
▁meeting	-1773
▁dess	-1774
▁dites	-1775
▁station	-1776
▁ty	-1777
▁far	-1778
▁cuis	-1779
oke	-1780
▁voudrais	-1781
▁empl	-1782
▁ap	-1783
▁quils	-1784
▁waiting	-1785
▁doll	-1786
▁mess	-1787
▁ris	-1788
▁phone	-1789
omm	-1790
▁most	-1791
▁cri	-1792
▁sun	-1793
▁kill	-1794
▁wear	-1795
avor	-1796
ances	-1797
▁news	-1798
▁photo	-1799
▁voulait	-1800
cin	-1801
▁exam	-1802
qué	-1803
til	-1804
used	-1805
▁which	-1806
ced	-1807
oud	-1808
▁devoir	-1809
ark	-1810
ivers	-1811
▁chang	-1812
adi	-1813
ball	-1814
▁devez	-1815
▁tennis	-1816
we	-1817
▁jeune	-1818
▁sound	-1819
▁restau	-1820
▁veuillez	-1821
▁pretty	-1822
▁pouvons	-1823
ace	-1824
rence	-1825
▁jign	-1826
alement	-1827
▁lettre	-1828
veux	-1829
▁favor	-1830
▁since	-1831
▁petite	-1832
ug	-1833
isf	-1834
▁bri	-1835
▁donné	-1836
ression	-1837
▁inform	-1838
rir	-1839
arge	-1840
▁brother	-1841
ateur	-1842
▁vite	-1843
▁dinner	-1844
▁air	-1845
▁books	-1846
▁visit	-1847
rent	-1848
▁beh	-1849
▁hor	-1850
▁arrête	-1851
▁partie	-1852
elt	-1853
port	-1854
▁donner	-1855
▁temp	-1856
▁started	-1857
▁util	-1858
▁doctor	-1859
▁voulez	-1860
▁suppose	-1861
▁feu	-1862
▁lau	-1863
▁devriez	-1864
▁sour	-1865
▁longer	-1866
▁préfé	-1867
▁world	-1868
▁allons	-1869
▁suff	-1870
ses	-1871
roit	-1872
▁occupé	-1873
▁ensemble	-1874
▁fon	-1875
▁careful	-1876
era	-1877
omme	-1878
▁enfant	-1879
▁serait	-1880
▁daccord	-1881
▁nos	-1882
▁chat	-1883
▁felt	-1884
▁hist	-1885
▁tellement	-1886
here	-1887
▁writ	-1888
▁likes	-1889
▁confiance	-1890
▁bi	-1891
ured	-1892
pl	-1893
▁plais	-1894
▁satisf	-1895
▁arriver	-1896
ût	-1897
ject	-1898
ettes	-1899
▁song	-1900
▁venu	-1901
▁stupid	-1902
▁bir	-1903
▁sugg	-1904
▁tête	-1905
▁close	-1906
icy	-1907
▁hum	-1908
▁real	-1909
▁window	-1910
olog	-1911
▁souh	-1912
▁livres	-1913
tez	-1914
▁hate	-1915
▁pleu	-1916
▁spend	-1917
▁prends	-1918
▁demander	-1919
az	-1920
rire	-1921
▁davoir	-1922
ame	-1923
urn	-1924
▁vit	-1925
▁stand	-1926
ush	-1927
▁vac	-1928
▁shes	-1929
iction	-1930
▁restaurant	-1931
▁nat	-1932
▁fini	-1933
▁anybody	-1934
▁acheter	-1935
ientôt	-1936
▁class	-1937
▁dress	-1938
▁bientôt	-1939
ète	-1940
▁gent	-1941
▁val	-1942
▁exact	-1943
▁davantage	-1944
▁face	-1945
▁facile	-1946
zy	-1947
▁high	-1948
▁luck	-1949
▁déjeuner	-1950
▁bag	-1951
▁cop	-1952
▁sit	-1953
he	-1954
ason	-1955
▁jad	-1956
▁ord	-1957
▁arrive	-1958
▁cours	-1959
▁profess	-1960
▁heureuse	-1961
▁inst	-1962
▁probable	-1963
ume	-1964
▁lint	-1965
éro	-1966
arer	-1967
▁laut	-1968
▁minute	-1969
▁personnes	-1970
teau	-1971
▁réun	-1972
▁seulement	-1973
▁den	-1974
▁méde	-1975
▁rap	-1976
ided	-1977
▁dér	-1978
▁lex	-1979
▁froid	-1980
▁mange	-1981
▁présent	-1982
▁travaille	-1983
▁étr	-1984
▁navons	-1985
▁bor	-1986
▁died	-1987
▁laissez	-1988
▁mistake	-1989
▁contr	-1990
▁serai	-1991
▁contre	-1992
oon	-1993
▁nager	-1994
▁étudi	-1995
▁colère	-1996
▁nas	-1997
▁mangé	-1998
rée	-1999
sive	-2000
▁park	-2001
▁mil	-2002
▁sto	-2003
▁leau	-2004
riture	-2005
ige	-2006
ott	-2007
iques	-2008
▁gone	-2009
▁publ	-2010
▁movie	-2011
▁looked	-2012
▁serv	-2013
▁envie	-2014
▁finished	-2015
▁adm	-2016
▁dix	-2017
▁head	-2018
▁lheure	-2019
▁devrait	-2020
là	-2021
▁cin	-2022
▁wom	-2023
▁sick	-2024
▁quite	-2025
▁accept	-2026
▁forgot	-2027
▁jaurais	-2028
▁surprised	-2029
çu	-2030
▁terri	-2031
▁follow	-2032
idi	-2033
▁dh	-2034
▁comprends	-2035
aie	-2036
aiss	-2037
▁amus	-2038
▁mois	-2039
▁nave	-2040
▁near	-2041
▁compte	-2042
dic	-2043
▁près	-2044
▁fen	-2045
▁trans	-2046
▁étiez	-2047
▁mettre	-2048
▁lunch	-2049
▁content	-2050
▁fatigué	-2051
▁vél	-2052
▁prév	-2053
▁alors	-2054
▁fou	-2055
▁suiv	-2056
▁word	-2057
▁drive	-2058
▁times	-2059
▁oublié	-2060
▁ouv	-2061
itude	-2062
▁bicy	-2063
▁laugh	-2064
▁réponse	-2065
▁until	-2066
ken	-2067
▁yeux	-2068
onc	-2069
▁pensestu	-2070
▁tax	-2071
▁four	-2072
▁dernier	-2073
▁laisser	-2074
▁réunion	-2075
ler	-2076
▁vue	-2077
▁corre	-2078
▁daller	-2079
▁dollars	-2080
▁six	-2081
ating	-2082
ience	-2083
▁vélo	-2084
▁vivre	-2085
▁ferais	-2086
▁dî	-2087
▁tv	-2088
▁dri	-2089
▁prison	-2090
▁cas	-2091
▁côt	-2092
▁whe	-2093
▁fast	-2094
▁hair	-2095
▁reconn	-2096
▁regret	-2097
▁ste	-2098
▁parlé	-2099
▁vieux	-2100
▁essayé	-2101
▁déteste	-2102
▁shouldve	-2103
▁art	-2104
▁réf	-2105
where	-2106
▁cade	-2107
▁foot	-2108
▁respons	-2109
agin	-2110
▁wife	-2111
▁music	-2112
ail	-2113
▁ru	-2114
▁lan	-2115
▁prix	-2116
▁attendre	-2117
▁mas	-2118
▁succ	-2119
▁donne	-2120
ano	-2121
ron	-2122
cial	-2123
cked	-2124
▁exac	-2125
▁fils	-2126
▁pain	-2127
▁month	-2128
▁pays	-2129
▁office	-2130
ably	-2131
ates	-2132
▁sûre	-2133
▁tick	-2134
vision	-2135
▁makes	-2136
▁story	-2137
▁serious	-2138
▁tre	-2139
▁girl	-2140
▁rapide	-2141
▁conduire	-2142
▁meilleur	-2143
aite	-2144
▁broke	-2145
▁nourriture	-2146
▁worry	-2147
▁weather	-2148
▁anim	-2149
▁comprendre	-2150
▁tru	-2151
▁angry	-2152
▁écrit	-2153
▁weekend	-2154
bé	-2155
ts	-2156
▁fig	-2157
onque	-2158
▁const	-2159
▁paint	-2160
▁reading	-2161
▁connaiss	-2162
▁autant	-2163
▁serais	-2164
▁diction	-2165
dé	-2166
réci	-2167
▁thé	-2168
▁whos	-2169
▁ok	-2170
assé	-2171
ission	-2172
▁belle	-2173
ete	-2174
ical	-2175
ises	-2176
less	-2177
▁add	-2178
▁guess	-2179
▁fonction	-2180
▁néc	-2181
▁séri	-2182
▁explain	-2183
▁opin	-2184
▁regarde	-2185
iness	-2186
▁chemin	-2187
▁dormir	-2188
▁tor	-2189
▁tent	-2190
▁laissé	-2191
riez	-2192
▁ign	-2193
▁malade	-2194
▁regarder	-2195
▁fix	-2196
▁sus	-2197
ouill	-2198
▁plut	-2199
▁prud	-2200
▁genre	-2201
▁supposed	-2202
▁vas	-2203
▁patient	-2204
rap	-2205
▁dici	-2206
réc	-2207
▁eyes	-2208
▁yours	-2209
▁promise	-2210
als	-2211
ime	-2212
venir	-2213
▁cause	-2214
▁conna	-2215
▁parti	-2216
▁changer	-2217
man	-2218
ution	-2219
▁bring	-2220
▁montre	-2221
▁feeling	-2222
▁ju	-2223
▁suc	-2224
▁fore	-2225
▁touch	-2226
▁having	-2227
▁exactly	-2228
▁dam	-2229
▁says	-2230
▁surv	-2231
▁vient	-2232
▁called	-2233
▁médecin	-2234
oubl	-2235
▁chauss	-2236
cu	-2237
iquer	-2238
▁fell	-2239
▁gare	-2240
▁arriv	-2241
▁garçon	-2242
▁navais	-2243
▁côté	-2244
▁hours	-2245
▁eating	-2246
nes	-2247
oking	-2248
▁thir	-2249
▁boire	-2250
▁playing	-2251
▁pied	-2252
▁jadore	-2253
▁himself	-2254
▁usually	-2255
ount	-2256
▁amie	-2257
▁journ	-2258
▁decided	-2259
▁travers	-2260
ras	-2261
hors	-2262
side	-2263
▁snow	-2264
uf	-2265
▁ago	-2266
▁autres	-2267
▁endroit	-2268
▁exactement	-2269
ib	-2270
▁hands	-2271
▁dispos	-2272
▁cost	-2273
▁safe	-2274
▁agree	-2275
▁clean	-2276
▁verre	-2277
▁reason	-2278
▁manière	-2279
▁trouble	-2280
▁arm	-2281
▁free	-2282
▁red	-2283
▁cent	-2284
▁small	-2285
▁plutôt	-2286
▁students	-2287
▁ég	-2288
work	-2289
▁cra	-2290
▁len	-2291
▁habit	-2292
▁piano	-2293
▁premier	-2294
lot	-2295
ny	-2296
▁esp	-2297
▁probablement	-2298
etil	-2299
▁bas	-2300
▁faim	-2301
▁kiss	-2302
▁super	-2303
▁probably	-2304
▁law	-2305
▁thr	-2306
▁chaud	-2307
▁turned	-2308
▁rê	-2309
orth	-2310
▁choix	-2311
▁puisse	-2312
▁prochaine	-2313
leur	-2314
ward	-2315
▁allow	-2316
▁dehors	-2317
▁pensezvous	-2318
▁bé	-2319
▁né	-2320
rons	-2321
▁ain	-2322
▁japp	-2323
▁lent	-2324
▁later	-2325
▁cheveux	-2326
oss	-2327
▁pop	-2328
▁pois	-2329
▁dream	-2330
▁glass	-2331
▁fit	-2332
mpl	-2333
lect	-2334
▁colle	-2335
▁dy	-2336
fect	-2337
▁bar	-2338
▁bill	-2339
▁mour	-2340
akes	-2341
ever	-2342
▁sub	-2343
▁aftern	-2344
▁lautre	-2345
▁perdre	-2346
venu	-2347
▁dém	-2348
▁sum	-2349
▁séc	-2350
▁tant	-2351
▁plu	-2352
▁ran	-2353
▁sac	-2354
uy	-2355
▁desc	-2356
▁discuss	-2357
▁through	-2358
midi	-2359
▁needs	-2360
▁penser	-2361
▁country	-2362
▁avais	-2363
▁saistu	-2364
▁interested	-2365
agne	-2366
erent	-2367
▁kept	-2368
▁ainsi	-2369
▁leav	-2370
▁pict	-2371
▁chans	-2372
▁décidé	-2373
▁jignore	-2374
son	-2375
ezmoi	-2376
▁quick	-2377
▁musique	-2378
▁picture	-2379
▁pouvais	-2380
▁afternoon	-2381
▁australia	-2382
▁different	-2383
anté	-2384
ables	-2385
▁aimer	-2386
▁wheres	-2387
▁fenêtre	-2388
▁première	-2389
▁gâ	-2390
▁concert	-2391
▁message	-2392
▁quelles	-2393
▁esc	-2394
▁vers	-2395
▁hurry	-2396
èmes	-2397
▁pap	-2398
rente	-2399
▁dîner	-2400
▁voyage	-2401
▁surpris	-2402
ber	-2403
atil	-2404
llig	-2405
▁hos	-2406
ettre	-2407
▁tree	-2408
▁advice	-2409
▁caught	-2410
▁opinion	-2411
▁outside	-2412
▁ate	-2413
récie	-2414
▁marcher	-2415
▁apprendre	-2416
br	-2417
▁langu	-2418
▁commencé	-2419
▁éch	-2420
cé	-2421
▁idi	-2422
▁vin	-2423
▁war	-2424
▁dead	-2425
▁boulot	-2426
▁disapp	-2427
▁arrived	-2428
▁commence	-2429
▁swe	-2430
▁fact	-2431
▁loin	-2432
▁sold	-2433
▁leurs	-2434
▁hospital	-2435
▁savezvous	-2436
▁interesting	-2437
▁pa	-2438
ized	-2439
▁begin	-2440
▁essayer	-2441
▁surprise	-2442
ôle	-2443
▁ext	-2444
▁imm	-2445
rière	-2446
▁radi	-2447
▁viend	-2448
▁imagin	-2449
▁cry	-2450
▁sag	-2451
avant	-2452
▁prin	-2453
▁proud	-2454
▁produit	-2455
▁devrions	-2456
alth	-2457
▁cut	-2458
resse	-2459
▁full	-2460
▁werent	-2461
▁guit	-2462
▁pick	-2463
amment	-2464
ru	-2465
▁intellig	-2466
▁z	-2467
▁bat	-2468
▁del	-2469
▁lieu	-2470
▁chois	-2471
▁navez	-2472
▁popul	-2473
▁taking	-2474
▁bicycle	-2475
▁désolée	-2476
▁pourriezvous	-2477
▁cu	-2478
▁hungry	-2479
▁against	-2480
▁thinking	-2481
oure	-2482
▁itll	-2483
▁lose	-2484
▁bab	-2485
▁tele	-2486
▁appro	-2487
▁nécess	-2488
unk	-2489
urité	-2490
▁appe	-2491
▁catch	-2492
▁sembl	-2493
▁chanter	-2494
ps	-2495
▁ind	-2496
▁bout	-2497
▁town	-2498
hers	-2499
oyer	-2500
voir	-2501
▁impos	-2502
▁appris	-2503
▁behind	-2504
▁év	-2505
iner	-2506
▁coin	-2507
▁join	-2508
▁joue	-2509
▁argent	-2510
▁needed	-2511
▁number	-2512
▁poi	-2513
▁soi	-2514
▁stu	-2515
▁âge	-2516
pping	-2517
▁plait	-2518
dd	-2519
cess	-2520
▁med	-2521
ately	-2522
▁payer	-2523
▁savait	-2524
▁taider	-2525
▁favorite	-2526
lui	-2527
▁dang	-2528
▁maybe	-2529
▁press	-2530
fast	-2531
iend	-2532
▁game	-2533
▁wine	-2534
▁cloth	-2535
▁noubl	-2536
▁peuvent	-2537
▁then	-2538
▁maider	-2539
▁saying	-2540
▁entendre	-2541
reet	-2542
asser	-2543
▁lives	-2544
▁making	-2545
▁breakfast	-2546
ât	-2547
▁réveill	-2548
ric	-2549
blig	-2550
▁lar	-2551
▁lie	-2552
▁vont	-2553
▁sorte	-2554
▁thanks	-2555
▁impossible	-2556
gr	-2557
▁type	-2558
érieur	-2559
▁large	-2560
▁choice	-2561
▁gagner	-2562
▁public	-2563
▁problèmes	-2564
ze	-2565
ôte	-2566
ande	-2567
▁shoes	-2568
▁short	-2569
▁compan	-2570
▁monday	-2571
▁suggest	-2572
▁homework	-2573
ense	-2574
▁journal	-2575
▁histoire	-2576
▁em	-2577
▁rac	-2578
▁test	-2579
▁allez	-2580
▁convain	-2581
▁chercher	-2582
cer	-2583
ités	-2584
▁box	-2585
▁mur	-2586
▁living	-2587
▁décision	-2588
agé	-2589
eler	-2590
▁div	-2591
▁mach	-2592
▁radio	-2593
▁simple	-2594
▁business	-2595
ray	-2596
▁ly	-2597
▁dai	-2598
anche	-2599
▁parc	-2600
▁pun	-2601
▁rom	-2602
ither	-2603
▁quic	-2604
▁peine	-2605
▁rentrer	-2606
▁quiconque	-2607
fort	-2608
▁lum	-2609
▁hold	-2610
▁appre	-2611
▁build	-2612
▁fumer	-2613
▁rè	-2614
▁die	-2615
▁rencontré	-2616
iqué	-2617
▁mod	-2618
ensive	-2619
▁cadeau	-2620
▁étions	-2621
▁pouvait	-2622
▁trave	-2623
▁summer	-2624
ève	-2625
nent	-2626
▁deal	-2627
▁écout	-2628
▁répondre	-2629
ked	-2630
▁amer	-2631
▁tort	-2632
▁sécurité	-2633
té	-2634
usé	-2635
même	-2636
▁der	-2637
▁préf	-2638
▁appreci	-2639
▁perfect	-2640
▁respect	-2641
em	-2642
▁cho	-2643
êcher	-2644
▁géné	-2645
▁rich	-2646
▁lundi	-2647
▁ordin	-2648
▁become	-2649
▁professeur	-2650
ash	-2651
▁ve	-2652
léch	-2653
médi	-2654
onde	-2655
▁lacc	-2656
▁complete	-2657
ky	-2658
▁suit	-2659
▁année	-2660
▁chaussures	-2661
▁jy	-2662
ding	-2663
▁déf	-2664
▁wed	-2665
▁cach	-2666
▁visite	-2667
▁clothes	-2668
▁opp	-2669
▁dark	-2670
▁ferai	-2671
ètement	-2672
▁daught	-2673
▁somebody	-2674
▁nouvelles	-2675
urg	-2676
ines	-2677
ître	-2678
▁lac	-2679
▁kids	-2680
▁taxi	-2681
▁oblig	-2682
aise	-2683
enir	-2684
ower	-2685
▁norm	-2686
▁parce	-2687
▁terre	-2688
atement	-2689
▁devoirs	-2690
▁réfléch	-2691
▁worried	-2692
▁rencontrer	-2693
gu	-2694
zz	-2695
▁moy	-2696
▁team	-2697
▁mains	-2698
▁older	-2699
lfriend	-2700
▁dim	-2701
▁croy	-2702
▁reçu	-2703
▁aband	-2704
▁laissemoi	-2705
lly	-2706
bres	-2707
▁fri	-2708
arrêt	-2709
attend	-2710
▁strong	-2711
▁changed	-2712
bas	-2713
user	-2714
▁angl	-2715
▁guys	-2716
▁heart	-2717
▁blessé	-2718
▁immédi	-2719
▁pleure	-2720
▁girlfriend	-2721
▁complètement	-2722
fer	-2723
iré	-2724
▁pie	-2725
▁base	-2726
▁magas	-2727
▁quune	-2728
▁route	-2729
▁correct	-2730
▁stupide	-2731
▁fish	-2732
▁crazy	-2733
importe	-2734
▁terminé	-2735
▁information	-2736
airs	-2737
çons	-2738
quipe	-2739
▁aije	-2740
▁rare	-2741
▁bruit	-2742
amed	-2743
icul	-2744
ling	-2745
▁hat	-2746
▁front	-2747
▁river	-2748
▁prochain	-2749
▁reco	-2750
bed	-2751
▁beer	-2752
▁post	-2753
▁works	-2754
▁americ	-2755
▁classe	-2756
▁certaine	-2757
fu	-2758
mbre	-2759
peau	-2760
▁bois	-2761
▁health	-2762
▁report	-2763
▁second	-2764
▁derrière	-2765
▁discuter	-2766
irt	-2767
lais	-2768
▁lis	-2769
ouver	-2770
▁façon	-2771
▁whole	-2772
paravant	-2773
▁quickly	-2774
arre	-2775
▁age	-2776
▁clear	-2777
▁droit	-2778
▁làbas	-2779
▁neige	-2780
▁amoure	-2781
▁lhomme	-2782
▁stayed	-2783
▁present	-2784
▁decision	-2785
▁mauvaise	-2786
quer	-2787
▁trad	-2788
▁bière	-2789
▁revoir	-2790
▁sometimes	-2791
▁tea	-2792
▁born	-2793
▁jess	-2794
▁lait	-2795
▁funny	-2796
▁sport	-2797
▁prenez	-2798
▁enseign	-2799
▁eng	-2800
▁wall	-2801
ication	-2802
▁aimé	-2803
▁font	-2804
▁paid	-2805
▁idiot	-2806
▁spent	-2807
▁langue	-2808
▁voulons	-2809
esse	-2810
oser	-2811
ative	-2812
ressed	-2813
▁scared	-2814
▁company	-2815
▁wearing	-2816
uellement	-2817
▁commencer	-2818
▁appreciate	-2819
▁auparavant	-2820
▁nécessaire	-2821
gan	-2822
▁cup	-2823
▁riv	-2824
▁fier	-2825
▁rece	-2826
▁assis	-2827
▁marys	-2828
▁consci	-2829
▁immédiatement	-2830
rew	-2831
tes	-2832
▁leg	-2833
▁signif	-2834
▁chanson	-2835
▁strange	-2836
▁rapidement	-2837
cs	-2838
▁él	-2839
▁baby	-2840
▁city	-2841
▁hotel	-2842
▁machine	-2843
▁computer	-2844
ques	-2845
▁clé	-2846
▁deau	-2847
ôpital	-2848
▁poser	-2849
▁tomber	-2850
▁faisait	-2851
▁disappoint	-2852
▁grow	-2853
▁hour	-2854
▁perd	-2855
▁remar	-2856
iter	-2857
ives	-2858
elles	-2859
▁card	-2860
▁less	-2861
▁riche	-2862
▁asleep	-2863
▁parfois	-2864
ted	-2865
lace	-2866
▁rue	-2867
▁form	-2868
illage	-2869
▁worth	-2870
▁nombreux	-2871
▁expensive	-2872
ule	-2873
istu	-2874
ules	-2875
▁guy	-2876
▁ferme	-2877
▁ouvert	-2878
▁contact	-2879
▁devenir	-2880
ual	-2881
igne	-2882
▁mill	-2883
▁capable	-2884
▁dispose	-2885
▁smoking	-2886
▁japanese	-2887
lent	-2888
omas	-2889
▁réal	-2890
▁symp	-2891
▁trip	-2892
▁check	-2893
▁guerre	-2894
▁suffis	-2895
▁thomas	-2896
▁building	-2897
▁lintention	-2898
ics	-2899
ensé	-2900
room	-2901
▁coû	-2902
ained	-2903
▁viol	-2904
▁fight	-2905
▁aurait	-2906
▁trente	-2907
▁occupée	-2908
ank	-2909
▁key	-2910
▁mad	-2911
▁death	-2912
▁resse	-2913
▁écrire	-2914
▁faisons	-2915
▁ait	-2916
▁pan	-2917
▁pard	-2918
▁quun	-2919
▁apolog	-2920
▁appelé	-2921
▁montrer	-2922
iel	-2923
ness	-2924
▁enn	-2925
▁hon	-2926
▁pic	-2927
▁exper	-2928
▁quiet	-2929
▁street	-2930
itch	-2931
▁opt	-2932
▁eaten	-2933
▁sagit	-2934
▁arrêté	-2935
▁emploi	-2936
▁recomm	-2937
▁préfère	-2938
bil	-2939
îte	-2940
ract	-2941
▁cinq	-2942
▁celle	-2943
▁terrible	-2944
▁aprèsmidi	-2945
▁télévision	-2946
▁deb	-2947
mment	-2948
▁clim	-2949
▁milk	-2950
▁sole	-2951
▁frapp	-2952
▁woman	-2953
yer	-2954
▁choc	-2955
▁pous	-2956
▁birth	-2957
▁lucky	-2958
▁plein	-2959
▁santé	-2960
▁ticket	-2961
▁anglais	-2962
▁naurais	-2963
ém	-2964
ôtel	-2965
▁biz	-2966
▁sad	-2967
onner	-2968
▁polit	-2969
▁vastu	-2970
▁stopped	-2971
▁watching	-2972
▁laissezmoi	-2973
gles	-2974
ired	-2975
▁num	-2976
▁mang	-2977
▁ress	-2978
▁impat	-2979
▁prête	-2980
▁advised	-2981
▁chapeau	-2982
▁particul	-2983
onné	-2984
▁réc	-2985
▁began	-2986
▁tasse	-2987
▁vacances	-2988
▁impression	-2989
▁boss	-2990
▁fruit	-2991
▁killed	-2992
▁étudier	-2993
▁nimporte	-2994
▁flo	-2995
ieurs	-2996
indre	-2997
▁comes	-2998
▁dangere	-2999
▁plaisir	-3000
▁cru	-3001
▁sci	-3002
antes	-3003
▁dest	-3004
▁jard	-3005
▁along	-3006
▁devant	-3007
agn	-3008
ween	-3009
▁hit	-3010
▁inj	-3011
▁coll	-3012
▁sell	-3013
▁vête	-3014
▁quitt	-3015
▁rouge	-3016
▁navait	-3017
▁soleil	-3018
▁student	-3019
by	-3020
ming	-3021
▁gun	-3022
ffect	-3023
▁five	-3024
▁half	-3025
quelle	-3026
▁autor	-3027
▁laide	-3028
▁rende	-3029
▁between	-3030
▁problems	-3031
pé	-3032
run	-3033
été	-3034
ières	-3035
▁bébé	-3036
▁mapp	-3037
▁absol	-3038
▁accomp	-3039
▁propre	-3040
▁dangerous	-3041
▁boîte	-3042
▁inqui	-3043
▁paper	-3044
▁possi	-3045
▁daughter	-3046
vre	-3047
alent	-3048
▁dogs	-3049
▁lapp	-3050
▁move	-3051
▁lannée	-3052
▁magasin	-3053
▁laquelle	-3054
▁utiliser	-3055
▁australie	-3056
ser	-3057
ener	-3058
▁tas	-3059
fully	-3060
idence	-3061
▁numéro	-3062
▁veulent	-3063
not	-3064
cier	-3065
▁sty	-3066
▁hors	-3067
▁shut	-3068
▁became	-3069
▁changé	-3070
▁jardin	-3071
▁marché	-3072
▁appréci	-3073
noc	-3074
▁bras	-3075
▁pleas	-3076
abitude	-3077
▁cuisine	-3078
▁rapport	-3079
▁rappelle	-3080
▁solution	-3081
▁vêtements	-3082
ss	-3083
oyé	-3084
▁tot	-3085
naire	-3086
urent	-3087
▁libre	-3088
▁poste	-3089
▁invited	-3090
cul	-3091
lves	-3092
▁las	-3093
▁vaut	-3094
▁fasse	-3095
▁souff	-3096
▁necess	-3097
▁rivière	-3098
▁vouloir	-3099
▁language	-3100
▁meilleure	-3101
▁lim	-3102
▁lune	-3103
▁nett	-3104
▁suite	-3105
▁talked	-3106
▁happens	-3107
▁conseill	-3108
vel	-3109
ène	-3110
quel	-3111
▁lend	-3112
▁order	-3113
▁mourir	-3114
▁racont	-3115
gne	-3116
kyo	-3117
▁flow	-3118
▁haut	-3119
▁soup	-3120
▁celui	-3121
▁finir	-3122
▁tokyo	-3123
oute	-3124
▁sme	-3125
▁donc	-3126
▁others	-3127
▁arrêter	-3128
▁mistakes	-3129
▁souviens	-3130
▁speaking	-3131
▁studying	-3132
▁pou	-3133
▁chev	-3134
▁date	-3135
▁tall	-3136
▁wash	-3137
▁plans	-3138
▁prefer	-3139
▁rather	-3140
▁thirty	-3141
▁affaires	-3142
▁plusieurs	-3143
atre	-3144
▁ach	-3145
▁hid	-3146
▁nau	-3147
▁ceux	-3148
▁matt	-3149
▁road	-3150
▁liked	-3151
▁smell	-3152
▁allowed	-3153
▁finally	-3154
ighb	-3155
iver	-3156
ether	-3157
▁bott	-3158
▁send	-3159
▁somme	-3160
▁store	-3161
▁appare	-3162
▁borrow	-3163
▁cherch	-3164
▁neighb	-3165
▁bizarre	-3166
érif	-3167
▁drunk	-3168
▁innoc	-3169
▁senti	-3170
▁missed	-3171
bo	-3172
▁dél	-3173
▁gri	-3174
▁éte	-3175
ature	-3176
tenir	-3177
▁chem	-3178
▁words	-3179
▁excuse	-3180
▁lumière	-3181
▁ordinateur	-3182
aint	-3183
band	-3184
ront	-3185
èque	-3186
▁amb	-3187
▁médic	-3188
▁réuss	-3189
▁closed	-3190
▁whether	-3191
▁lad	-3192
▁cake	-3193
▁fool	-3194
▁prot	-3195
▁vend	-3196
▁wrote	-3197
▁manque	-3198
▁success	-3199
▁telling	-3200
▁vieille	-3201
bli	-3202
▁rire	-3203
▁soin	-3204
▁takes	-3205
▁helped	-3206
▁return	-3207
▁happening	-3208
set	-3209
aged	-3210
arth	-3211
ceed	-3212
aines	-3213
▁fass	-3214
selves	-3215
▁carte	-3216
▁court	-3217
▁envir	-3218
▁completely	-3219
hn	-3220
hab	-3221
rib	-3222
rés	-3223
▁tim	-3224
asion	-3225
▁cong	-3226
▁seat	-3227
▁organ	-3228
▁vérif	-3229
▁convin	-3230
▁fleurs	-3231
▁gâteau	-3232
▁compris	-3233
▁nervous	-3234
▁running	-3235
ded	-3236
ock	-3237
prise	-3238
▁camp	-3239
▁lived	-3240
▁dentre	-3241
▁connaît	-3242
▁leaving	-3243
lc	-3244
ccup	-3245
heure	-3246
river	-3247
▁parv	-3248
▁known	-3249
▁linst	-3250
▁souhait	-3251
▁intelligent	-3252
▁goes	-3253
▁black	-3254
▁liste	-3255
▁produ	-3256
▁garden	-3257
iversaire	-3258
én	-3259
roy	-3260
eter	-3261
▁dég	-3262
avoir	-3263
▁atte	-3264
▁embr	-3265
▁mets	-3266
▁requ	-3267
▁earth	-3268
▁entrer	-3269
▁garder	-3270
▁brought	-3271
▁excuses	-3272
▁langlais	-3273
▁laccident	-3274
▁nombreuses	-3275
cip	-3276
▁cir	-3277
▁pur	-3278
aistu	-3279
▁vent	-3280
▁least	-3281
▁savez	-3282
▁porter	-3283
▁actually	-3284
▁football	-3285
▁shopping	-3286
▁ball	-3287
itting	-3288
▁sense	-3289
▁penses	-3290
▁worked	-3291
▁réparer	-3292
onom	-3293
▁gif	-3294
▁sel	-3295
▁ferm	-3296
▁limp	-3297
▁voici	-3298
▁commen	-3299
▁suppos	-3300
▁evening	-3301
isc	-3302
cell	-3303
ries	-3304
urer	-3305
▁bât	-3306
▁pizz	-3307
▁poss	-3308
▁prep	-3309
▁robe	-3310
▁slow	-3311
▁volé	-3312
atique	-3313
▁marche	-3314
▁affaire	-3315
▁promets	-3316
▁birthday	-3317
▁souhaite	-3318
▁bal	-3319
▁urg	-3320
ended	-3321
▁case	-3322
▁nont	-3323
▁pourraistu	-3324
ial	-3325
tures	-3326
▁vide	-3327
▁faute	-3328
▁garde	-3329
▁loves	-3330
▁broken	-3331
▁swimming	-3332
itié	-3333
▁fine	-3334
▁john	-3335
▁chiens	-3336
▁dangereux	-3337
ames	-3338
ished	-3339
▁avoc	-3340
arrass	-3341
▁beach	-3342
▁trait	-3343
▁chocol	-3344
▁handle	-3345
▁village	-3346
▁necessary	-3347
ari	-3348
irai	-3349
▁aud	-3350
▁set	-3351
ently	-3352
▁bank	-3353
▁sang	-3354
▁offer	-3355
▁plage	-3356
▁remer	-3357
▁prudent	-3358
▁expected	-3359
oo	-3360
ffic	-3361
head	-3362
ored	-3363
▁pluie	-3364
▁future	-3365
▁speaks	-3366
▁impatient	-3367
ots	-3368
ails	-3369
etoi	-3370
▁oct	-3371
▁coat	-3372
▁noir	-3373
▁resté	-3374
▁smoke	-3375
▁voulu	-3376
▁années	-3377
▁quatre	-3378
▁concent	-3379
▁pleuvoir	-3380
li	-3381
▁dra	-3382
▁rav	-3383
▁rum	-3384
ormais	-3385
▁pleurer	-3386
▁intéressant	-3387
▁u	-3388
jou	-3389
lev	-3390
▁dès	-3391
▁fas	-3392
▁treat	-3393
▁habitu	-3394
▁nétais	-3395
▁baseball	-3396
▁désormais	-3397
▁disappointed	-3398
▁lâ	-3399
reed	-3400
ument	-3401
▁curi	-3402
▁heav	-3403
▁mots	-3404
▁conseil	-3405
▁flowers	-3406
cep	-3407
uer	-3408
erve	-3409
▁det	-3410
▁dormi	-3411
▁souci	-3412
▁normal	-3413
▁lhôpital	-3414
▁différent	-3415
zmoi	-3416
▁divor	-3417
▁mante	-3418
▁noise	-3419
▁rules	-3420
▁white	-3421
▁assist	-3422
▁commun	-3423
ings	-3424
âmes	-3425
oudre	-3426
▁gets	-3427
▁hell	-3428
▁floor	-3429
▁honest	-3430
▁whatever	-3431
▁fonctionne	-3432
amp	-3433
▁cél	-3434
▁lam	-3435
▁pot	-3436
▁bath	-3437
▁tapp	-3438
▁tromp	-3439
▁recher	-3440
▁comprend	-3441
▁résoudre	-3442
edi	-3443
ode	-3444
orté	-3445
▁doub	-3446
▁octo	-3447
▁loved	-3448
▁plane	-3449
▁rendu	-3450
▁sever	-3451
▁filles	-3452
▁prépar	-3453
▁courant	-3454
▁étudiants	-3455
▁wake	-3456
raient	-3457
▁réussi	-3458
▁walked	-3459
▁concern	-3460
▁forward	-3461
▁several	-3462
▁somewhere	-3463
lt	-3464
sh	-3465
ane	-3466
▁eux	-3467
▁fus	-3468
ommes	-3469
raper	-3470
▁prép	-3471
▁cannot	-3472
▁mesure	-3473
▁writing	-3474
▁satisfait	-3475
dden	-3476
▁ski	-3477
▁appl	-3478
▁chin	-3479
▁pull	-3480
▁either	-3481
▁hommes	-3482
▁étrang	-3483
▁regardé	-3484
▁consider	-3485
ape	-3486
ones	-3487
▁gas	-3488
essus	-3489
▁note	-3490
▁payé	-3491
▁tran	-3492
rouill	-3493
▁breat	-3494
▁photos	-3495
▁manteau	-3496
▁possibil	-3497
lla	-3498
unes	-3499
▁dex	-3500
▁dise	-3501
▁sapp	-3502
blioth	-3503
▁medic	-3504
▁gentil	-3505
▁règles	-3506
▁savons	-3507
▁sounds	-3508
▁weight	-3509
▁figured	-3510
▁petitdé	-3511
▁étrange	-3512
▁biblioth	-3513
▁reconnaiss	-3514
ira	-3515
prit	-3516
▁jol	-3517
▁honn	-3518
▁past	-3519
▁début	-3520
▁price	-3521
▁progr	-3522
▁whose	-3523
▁emprun	-3524
▁sunday	-3525
▁cherche	-3526
▁finalement	-3527
ague	-3528
▁cré	-3529
▁ride	-3530
▁star	-3531
▁dance	-3532
▁diffe	-3533
▁horri	-3534
▁intro	-3535
▁invit	-3536
▁parap	-3537
▁thinks	-3538
▁transl	-3539
raî	-3540
▁da	-3541
enty	-3542
form	-3543
▁moyen	-3544
▁prote	-3545
▁waste	-3546
▁aurais	-3547
▁fermer	-3548
▁projet	-3549
▁dautres	-3550
▁sleeping	-3551
▁allezvous	-3552
▁dictionary	-3553
▁suffisamment	-3554
onte	-3555
▁lép	-3556
▁desk	-3557
▁sand	-3558
▁match	-3559
▁donnemoi	-3560
▁dictionnaire	-3561
co	-3562
ket	-3563
rol	-3564
▁ir	-3565
irer	-3566
dered	-3567
▁jack	-3568
▁priv	-3569
▁hasnt	-3570
▁rempl	-3571
▁upset	-3572
▁succeed	-3573
▁japonais	-3574
▁oui	-3575
orais	-3576
▁fair	-3577
▁libr	-3578
▁mens	-3579
▁ones	-3580
▁rêve	-3581
▁warm	-3582
▁apart	-3583
▁umbre	-3584
▁bother	-3585
way	-3586
▁calm	-3587
▁dapp	-3588
▁ship	-3589
▁impro	-3590
▁poids	-3591
▁tombé	-3592
istoire	-3593
▁absent	-3594
▁couple	-3595
▁dirait	-3596
▁lequel	-3597
▁poisson	-3598
▁quitter	-3599
▁drinking	-3600
ior	-3601
iles	-3602
▁mir	-3603
imême	-3604
upart	-3605
▁bate	-3606
▁doute	-3607
▁famous	-3608
▁moimême	-3609
▁plupart	-3610
▁suspect	-3611
▁japprécie	-3612
▁bibliothèque	-3613
ross	-3614
▁owe	-3615
▁cand	-3616
▁coût	-3617
▁crime	-3618
▁lying	-3619
▁mount	-3620
érience	-3621
▁excell	-3622
▁restez	-3623
▁sérieux	-3624
lex	-3625
ator	-3626
▁canad	-3627
▁cassé	-3628
▁cross	-3629
▁pizza	-3630
▁recogn	-3631
▁estelle	-3632
ustom	-3633
▁side	-3634
others	-3635
▁means	-3636
▁telle	-3637
▁autour	-3638
▁devenu	-3639
▁written	-3640
ton	-3641
▁ni	-3642
rope	-3643
rions	-3644
▁taken	-3645
▁tenir	-3646
▁effray	-3647
▁entend	-3648
▁seeing	-3649
▁moindre	-3650
ub	-3651
lock	-3652
luie	-3653
▁rég	-3654
▁poor	-3655
▁charg	-3656
▁drôle	-3657
▁girls	-3658
▁endorm	-3659
▁grosse	-3660
▁lawyer	-3661
▁patron	-3662
▁suisje	-3663
▁équipe	-3664
▁arrêtez	-3665
▁parapluie	-3666
éd	-3667
isse	-3668
irent	-3669
ograp	-3670
▁préc	-3671
▁malad	-3672
▁persu	-3673
▁smart	-3674
▁continue	-3675
▁umbrella	-3676
amen	-3677
ayer	-3678
▁dar	-3679
vered	-3680
▁calme	-3681
▁coûte	-3682
▁salle	-3683
▁spoke	-3684
rezvous	-3685
▁during	-3686
▁guitar	-3687
gar	-3688
icle	-3689
iven	-3690
▁aid	-3691
▁hus	-3692
▁ice	-3693
▁sle	-3694
gment	-3695
▁puiss	-3696
▁crying	-3697
▁danser	-3698
▁grandm	-3699
▁inside	-3700
▁médica	-3701
▁object	-3702
▁opened	-3703
▁sudden	-3704
▁library	-3705
▁difference	-3706
▁permission	-3707
mbl	-3708
ived	-3709
lame	-3710
▁egg	-3711
▁gau	-3712
▁crit	-3713
▁warn	-3714
▁plain	-3715
▁asking	-3716
▁immedi	-3717
▁triste	-3718
▁sommeil	-3719
▁amoureux	-3720
▁dimanche	-3721
▁datt	-3722
▁pire	-3723
▁save	-3724
▁amies	-3725
▁appar	-3726
▁chair	-3727
▁choose	-3728
▁succès	-3729
▁lunettes	-3730
▁embarrass	-3731
oie	-3732
lier	-3733
▁dut	-3734
▁lou	-3735
▁fera	-3736
▁vien	-3737
▁welc	-3738
▁belong	-3739
▁dismoi	-3740
▁traffic	-3741
▁promised	-3742
▁petitdéjeuner	-3743
dge	-3744
ache	-3745
enci	-3746
▁mit	-3747
▁mét	-3748
▁keys	-3749
▁bateau	-3750
▁crains	-3751
▁essaie	-3752
▁result	-3753
▁tranqu	-3754
▁address	-3755
▁douleur	-3756
▁convainc	-3757
▁medicine	-3758
ède	-3759
▁fis	-3760
▁jet	-3761
▁loc	-3762
▁top	-3763
▁lever	-3764
▁repas	-3765
▁bonnes	-3766
▁femmes	-3767
▁nature	-3768
▁pommes	-3769
▁chemise	-3770
▁husband	-3771
▁listening	-3772
ell	-3773
ili	-3774
mon	-3775
aces	-3776
yons	-3777
▁cur	-3778
▁goût	-3779
▁pauv	-3780
▁solve	-3781
▁effort	-3782
▁résult	-3783
▁learned	-3784
▁certains	-3785
▁fatiguée	-3786
▁différence	-3787
▁tie	-3788
aisse	-3789
▁daide	-3790
▁fault	-3791
▁mavez	-3792
▁piece	-3793
▁shirt	-3794
▁attent	-3795
▁furent	-3796
▁lorsqu	-3797
▁promis	-3798
na	-3799
of	-3800
cks	-3801
éter	-3802
▁celu	-3803
▁spee	-3804
▁adore	-3805
▁dessus	-3806
▁talent	-3807
aitement	-3808
eusement	-3809
▁couldve	-3810
▁vacation	-3811
lax	-3812
let	-3813
rup	-3814
tres	-3815
▁tué	-3816
ences	-3817
igner	-3818
▁létr	-3819
▁sout	-3820
▁gagné	-3821
▁magaz	-3822
▁newsp	-3823
▁réjou	-3824
▁course	-3825
▁direct	-3826
▁seconde	-3827
ened	-3828
▁mem	-3829
▁tend	-3830
▁ahead	-3831
▁blame	-3832
▁grave	-3833
▁sorti	-3834
▁avocat	-3835
▁cheval	-3836
▁appeler	-3837
▁command	-3838
▁coucher	-3839
▁parfait	-3840
cl	-3841
phon	-3842
▁dad	-3843
▁jeu	-3844
▁risk	-3845
▁shot	-3846
▁quels	-3847
▁charge	-3848
▁service	-3849
▁malheure	-3850
▁planning	-3851
▁connaisse	-3852
▁lhistoire	-3853
nem	-3854
▁oc	-3855
oles	-3856
▁bur	-3857
▁fill	-3858
nement	-3859
▁alive	-3860
▁empty	-3861
▁reach	-3862
▁venue	-3863
▁speech	-3864
▁attendu	-3865
▁compter	-3866
▁demanda	-3867
▁complain	-3868
▁âg	-3869
outer	-3870
▁bons	-3871
▁apple	-3872
▁condu	-3873
▁serez	-3874
▁women	-3875
arrêter	-3876
▁oclock	-3877
▁viande	-3878
▁waited	-3879
▁croyais	-3880
▁mariage	-3881
▁préféré	-3882
▁innocent	-3883
irm	-3884
▁hop	-3885
▁écl	-3886
▁asse	-3887
▁bleu	-3888
▁cous	-3889
▁jump	-3890
▁soci	-3891
▁école	-3892
acheter	-3893
ortun	-3894
▁cess	-3895
▁voix	-3896
▁allée	-3897
▁worse	-3898
▁environ	-3899
alle	-3900
▁cre	-3901
▁vict	-3902
▁throw	-3903
▁papier	-3904
▁foreign	-3905
▁mention	-3906
▁lintérieur	-3907
▁immediately	-3908
ilt	-3909
écu	-3910
road	-3911
▁clés	-3912
▁fond	-3913
▁math	-3914
▁meat	-3915
▁susp	-3916
▁relax	-3917
▁venez	-3918
▁across	-3919
▁travel	-3920
▁driving	-3921
▁voyager	-3922
▁létranger	-3923
▁rh	-3924
ched	-3925
land	-3926
orer	-3927
▁dor	-3928
▁doù	-3929
▁lor	-3930
euses	-3931
▁aidé	-3932
▁hang	-3933
▁toil	-3934
▁color	-3935
▁fired	-3936
▁horse	-3937
▁peint	-3938
▁camera	-3939
▁except	-3940
▁hardly	-3941
ièrement	-3942
▁rendezvous	-3943
▁ra	-3944
▁dan	-3945
▁golf	-3946
cepter	-3947
friend	-3948
▁seriez	-3949
▁bâtiment	-3950
▁apologize	-3951
▁telephone	-3952
go	-3953
cte	-3954
riv	-3955
ufs	-3956
▁gén	-3957
agine	-3958
▁pron	-3959
▁fermé	-3960
▁risque	-3961
▁injured	-3962
▁connaître	-3963
▁retourner	-3964
▁pouvonsnous	-3965
iné	-3966
▁maj	-3967
▁rob	-3968
▁cart	-3969
▁lake	-3970
▁wood	-3971
▁pieds	-3972
▁stuff	-3973
▁courir	-3974
▁special	-3975
▁horrible	-3976
▁pictures	-3977
▁certaines	-3978
aps	-3979
até	-3980
dit	-3981
▁mex	-3982
iving	-3983
olved	-3984
▁blue	-3985
▁enem	-3986
▁oise	-3987
▁accord	-3988
▁ferait	-3989
▁ouvrir	-3990
▁showed	-3991
▁glasses	-3992
▁willing	-3993
▁carefully	-3994
▁proposition	-3995
erv	-3996
rice	-3997
▁spé	-3998
▁décl	-3999
▁none	-4000
▁prov	-4001
▁seras	-4002
▁allait	-4003
▁earlier	-4004
▁erreurs	-4005
▁beginning	-4006
▁jignorais	-4007
▁faitesvous	-4008
oque	-4009
▁yes	-4010
vious	-4011
▁cats	-4012
▁crow	-4013
▁deep	-4014
▁docu	-4015
▁chats	-4016
▁effect	-4017
▁figure	-4018
▁proche	-4019
▁welcome	-4020
▁rarement	-4021
rig	-4022
abil	-4023
▁ash	-4024
▁mam	-4025
▁web	-4026
▁boys	-4027
▁cool	-4028
▁gift	-4029
▁blanc	-4030
▁oncle	-4031
▁banque	-4032
▁rentré	-4033
▁augment	-4034
▁garçons	-4035
▁sontils	-4036
▁staying	-4037
▁prepared	-4038
▁ressemble	-4039
▁également	-4040
▁voudriezvous	-4041
els	-4042
eth	-4043
omb	-4044
rite	-4045
▁dos	-4046
▁qual	-4047
▁canadi	-4048
▁dispar	-4049
▁noublie	-4050
▁dacheter	-4051
▁distance	-4052
cée	-4053
ird	-4054
▁cig	-4055
▁fre	-4056
▁lic	-4057
▁mien	-4058
▁stri	-4059
▁améri	-4060
▁ignor	-4061
▁march	-4062
▁slept	-4063
▁veget	-4064
▁invité	-4065
▁played	-4066
▁seemed	-4067
▁tableau	-4068
▁conseils	-4069
ué	-4070
▁hy	-4071
▁lock	-4072
▁elect	-4073
▁sucre	-4074
▁doisje	-4075
▁parlez	-4076
▁raining	-4077
▁présenter	-4078
▁réfléchir	-4079
▁experience	-4080
iff	-4081
ides	-4082
▁memb	-4083
▁shop	-4084
▁given	-4085
▁menti	-4086
▁repro	-4087
▁afford	-4088
▁faistu	-4089
▁movies	-4090
fortable	-4091
▁support	-4092
▁linstant	-4093
▁opportun	-4094
mar	-4095
éré	-4096
oned	-4097
▁brû	-4098
▁méc	-4099
itted	-4100
▁joke	-4101
▁mign	-4102
▁allés	-4103
▁censé	-4104
▁stylo	-4105
▁arrest	-4106
▁europe	-4107
▁refuse	-4108
▁amusant	-4109
▁rappeler	-4110
ief	-4111
▁ed	-4112
ards	-4113
isée	-4114
reen	-4115
▁har	-4116
▁bord	-4117
▁ciel	-4118
▁draw	-4119
▁fant	-4120
▁soul	-4121
▁gener	-4122
▁uncle	-4123
ivement	-4124
▁lavion	-4125
▁marier	-4126
▁passed	-4127
▁quitté	-4128
▁suivre	-4129
▁theyll	-4130
▁college	-4131
▁boyfriend	-4132
▁condition	-4133
▁satisfied	-4134
▁wonderful	-4135
▁anniversaire	-4136
▁ayez	-4137
▁club	-4138
▁doubt	-4139
▁enfin	-4140
▁roman	-4141
▁durant	-4142
▁garage	-4143
▁quastu	-4144
▁animaux	-4145
▁considé	-4146
▁profond	-4147
▁program	-4148
▁donnezmoi	-4149
ob	-4150
urs	-4151
onge	-4152
▁mid	-4153
▁rée	-4154
verte	-4155
▁acqu	-4156
▁mout	-4157
▁tuer	-4158
▁sache	-4159
▁decide	-4160
▁instru	-4161
▁surviv	-4162
▁vivent	-4163
▁réjouis	-4164
▁démission	-4165
▁travaillé	-4166
so	-4167
men	-4168
aret	-4169
itut	-4170
ième	-4171
▁cit	-4172
▁aies	-4173
▁mest	-4174
▁push	-4175
▁suic	-4176
icious	-4177
▁arbre	-4178
▁blood	-4179
▁honte	-4180
▁laime	-4181
▁weird	-4182
▁cancer	-4183
▁invest	-4184
▁sentir	-4185
▁couleur	-4186
▁dressed	-4187
▁protect	-4188
▁appareil	-4189
▁ditesmoi	-4190
▁regardez	-4191
▁tranquille	-4192
▁voudraistu	-4193
aign	-4194
▁réd	-4195
venue	-4196
▁char	-4197
▁line	-4198
ounded	-4199
▁storm	-4200
attends	-4201
▁consid	-4202
▁généra	-4203
▁jeunes	-4204
▁taille	-4205
▁tavoir	-4206
▁répondu	-4207
▁discours	-4208
▁continuer	-4209
su	-4210
▁jud	-4211
▁ram	-4212
▁extr	-4213
▁socc	-4214
▁aviez	-4215
▁carry	-4216
▁debout	-4217
▁kissed	-4218
▁longue	-4219
avezvous	-4220
▁sitting	-4221
hip	-4222
ales	-4223
▁sim	-4224
▁échou	-4225
▁attrap	-4226
▁chaise	-4227
▁envoyé	-4228
▁gauche	-4229
▁harder	-4230
▁animals	-4231
▁control	-4232
▁dérange	-4233
▁tempête	-4234
▁walking	-4235
▁laughing	-4236
▁souvenir	-4237
▁television	-4238
ists	-4239
wich	-4240
▁fly	-4241
▁loi	-4242
▁zoo	-4243
ordin	-4244
▁danc	-4245
▁hows	-4246
▁pack	-4247
▁surp	-4248
▁éche	-4249
▁dents	-4250
▁novel	-4251
▁abroad	-4252
▁employ	-4253
▁hundre	-4254
▁likely	-4255
▁guitare	-4256
▁wouldve	-4257
▁sandwich	-4258
▁facilement	-4259
gle	-4260
acle	-4261
▁eye	-4262
▁also	-4263
▁impl	-4264
▁magn	-4265
▁ring	-4266
stairs	-4267
▁boute	-4268
▁sugar	-4269
▁agreed	-4270
▁pensait	-4271
▁signifie	-4272
▁responsable	-4273
ef	-4274
rier	-4275
▁crav	-4276
▁dish	-4277
▁lied	-4278
▁admit	-4279
▁frais	-4280
▁power	-4281
▁prévu	-4282
▁servi	-4283
▁mentir	-4284
▁whatre	-4285
▁airport	-4286
▁appelle	-4287
▁conduis	-4288
▁décrire	-4289
▁réussir	-4290
▁plaisant	-4291
▁étudiant	-4292
apé	-4293
ned	-4294
teen	-4295
▁nut	-4296
alous	-4297
▁lété	-4298
▁sale	-4299
éroport	-4300
▁soirée	-4301
▁sooner	-4302
▁winter	-4303
▁couteau	-4304
▁honnête	-4305
▁devraisje	-4306
▁emprunter	-4307
▁er	-4308
▁hu	-4309
ined	-4310
▁dab	-4311
erais	-4312
itive	-4313
ément	-4314
▁célè	-4315
▁dipl	-4316
▁doig	-4317
▁souc	-4318
▁chanc	-4319
▁enter	-4320
▁chante	-4321
▁permis	-4322
▁courage	-4323
▁nerveux	-4324
▁involved	-4325
▁semaines	-4326
con	-4327
gie	-4328
oux	-4329
iced	-4330
èves	-4331
▁tin	-4332
▁beat	-4333
▁grou	-4334
▁page	-4335
▁force	-4336
▁heavy	-4337
▁knife	-4338
▁lente	-4339
▁ridic	-4340
▁common	-4341
▁intern	-4342
▁introdu	-4343
▁million	-4344
▁obvious	-4345
▁partout	-4346
▁revenir	-4347
▁reviend	-4348
▁semblez	-4349
▁singing	-4350
▁mountain	-4351
ruit	-4352
▁dau	-4353
istic	-4354
▁eggs	-4355
▁retr	-4356
ifique	-4357
▁built	-4358
▁pomme	-4359
▁pract	-4360
▁rends	-4361
▁weeks	-4362
▁easily	-4363
▁gotten	-4364
▁terrif	-4365
▁volont	-4366
▁article	-4367
▁lexamen	-4368
▁absolute	-4369
▁anywhere	-4370
▁patience	-4371
▁préparer	-4372
▁semblait	-4373
▁téléphon	-4374
vén	-4375
ader	-4376
▁exh	-4377
▁lég	-4378
▁dépê	-4379
▁land	-4380
▁détud	-4381
▁kitch	-4382
▁meant	-4383
▁trees	-4384
▁détest	-4385
▁incroy	-4386
▁convers	-4387
▁younger	-4388
▁comporte	-4389
▁followed	-4390
▁painting	-4391
▁lavezvous	-4392
olen	-4393
stoi	-4394
velo	-4395
▁clo	-4396
▁hed	-4397
▁bain	-4398
▁bike	-4399
▁exer	-4400
▁jall	-4401
▁tien	-4402
▁ennuy	-4403
▁marié	-4404
▁twice	-4405
▁états	-4406
vénient	-4407
▁attack	-4408
▁blague	-4409
▁ignore	-4410
▁stolen	-4411
▁urgent	-4412
▁vendre	-4413
▁cigaret	-4414
▁cravate	-4415
▁enjoyed	-4416
▁kitchen	-4417
▁univers	-4418
▁direction	-4419
ror	-4420
aked	-4421
▁log	-4422
▁spr	-4423
▁linc	-4424
▁prit	-4425
itions	-4426
▁aimes	-4427
▁avoid	-4428
▁donna	-4429
▁laise	-4430
▁canapé	-4431
▁discut	-4432
▁visage	-4433
▁silence	-4434
▁contente	-4435
▁supporter	-4436
pin	-4437
▁ele	-4438
▁sky	-4439
▁grad	-4440
▁hide	-4441
▁lond	-4442
▁napp	-4443
▁smil	-4444
▁soud	-4445
▁hôtel	-4446
▁lastu	-4447
▁morce	-4448
▁pensez	-4449
▁décider	-4450
▁mattend	-4451
▁propres	-4452
▁cuisiner	-4453
▁conscience	-4454
▁limpression	-4455
mén	-4456
▁ev	-4457
▁fail	-4458
▁fing	-4459
▁vote	-4460
▁drank	-4461
▁incon	-4462
ctement	-4463
▁appren	-4464
▁manqué	-4465
▁moitié	-4466
▁promen	-4467
▁shower	-4468
▁ashamed	-4469
▁fishing	-4470
▁ouverte	-4471
▁popular	-4472
▁excellent	-4473
▁intention	-4474
resh	-4475
▁rid	-4476
▁chac	-4477
▁lear	-4478
cation	-4479
▁stick	-4480
▁avions	-4481
▁destin	-4482
▁docteur	-4483
▁convinced	-4484
▁intéressé	-4485
▁président	-4486
▁discussion	-4487
▁enseignant	-4488
▁importante	-4489
▁quavezvous	-4490
aré	-4491
▁flu	-4492
iller	-4493
▁boat	-4494
▁cute	-4495
▁grat	-4496
▁pont	-4497
ouvrir	-4498
▁ideas	-4499
▁mérit	-4500
▁obten	-4501
▁proté	-4502
▁roses	-4503
▁utile	-4504
▁battre	-4505
▁bottle	-4506
▁aimestu	-4507
▁avaient	-4508
▁partici	-4509
▁tickets	-4510
▁parviens	-4511
▁vérifier	-4512
▁laéroport	-4513
▁remercier	-4514
ms	-4515
▁hé	-4516
▁ém	-4517
case	-4518
▁ant	-4519
▁unc	-4520
▁batt	-4521
▁body	-4522
▁capt	-4523
▁held	-4524
▁jent	-4525
▁sors	-4526
rerais	-4527
▁bread	-4528
▁extre	-4529
▁rhume	-4530
▁leaves	-4531
▁plenty	-4532
▁remind	-4533
▁scient	-4534
▁taught	-4535
▁jessaie	-4536
▁ressent	-4537
▁viendra	-4538
▁étatsun	-4539
▁montagne	-4540
▁nettoyer	-4541
▁pratique	-4542
▁produire	-4543
▁convaincu	-4544
▁lentement	-4545
own	-4546
erne	-4547
rase	-4548
▁def	-4549
▁tire	-4550
▁concl	-4551
▁laver	-4552
▁vieil	-4553
▁apples	-4554
▁giving	-4555
▁jessay	-4556
▁lhabitude	-4557
idée	-4558
▁sam	-4559
arter	-4560
▁drop	-4561
▁neuf	-4562
dedans	-4563
▁allum	-4564
▁glace	-4565
▁plant	-4566
▁prêts	-4567
▁faster	-4568
▁feriez	-4569
▁refused	-4570
▁supposé	-4571
▁làdedans	-4572
▁imagination	-4573
▁généralement	-4574
emp	-4575
pri	-4576
▁cow	-4577
▁jar	-4578
aveur	-4579
issez	-4580
▁feed	-4581
▁lone	-4582
▁pier	-4583
▁pleut	-4584
▁repos	-4585
▁selon	-4586
▁tiens	-4587
▁months	-4588
▁revenu	-4589
▁taller	-4590
▁tombée	-4591
▁calling	-4592
▁extreme	-4593
▁instant	-4594
▁princip	-4595
▁suddenly	-4596
aît	-4597
ased	-4598
cket	-4599
▁kil	-4600
▁fear	-4601
▁loud	-4602
▁lève	-4603
▁mass	-4604
▁sauf	-4605
isions	-4606
ograph	-4607
ouvert	-4608
▁fiche	-4609
▁jolie	-4610
▁pleur	-4611
▁seuls	-4612
▁testu	-4613
▁kidding	-4614
▁laughed	-4615
▁canadian	-4616
▁recently	-4617
▁sentiment	-4618
cha	-4619
ctions	-4620
▁compt	-4621
▁heres	-4622
▁marry	-4623
▁pause	-4624
▁simil	-4625
▁faveur	-4626
▁gouver	-4627
▁passée	-4628
▁lesprit	-4629
▁maladie	-4630
▁conversation	-4631
▁habituellement	-4632
vern	-4633
érer	-4634
▁hol	-4635
▁tel	-4636
istes	-4637
▁cars	-4638
▁quant	-4639
▁sight	-4640
artient	-4641
▁faitil	-4642
▁groupe	-4643
▁larbre	-4644
▁prêter	-4645
▁attends	-4646
▁cooking	-4647
▁terminer	-4648
▁bouteille	-4649
▁newspaper	-4650
▁seriously	-4651
▁incroyable	-4652
▁parfaitement	-4653
cil	-4654
hol	-4655
ffre	-4656
hood	-4657
▁arme	-4658
▁cray	-4659
▁mail	-4660
▁preu	-4661
▁repr	-4662
▁ving	-4663
▁vécu	-4664
urance	-4665
▁hadnt	-4666
▁moved	-4667
▁stuck	-4668
▁taime	-4669
usement	-4670
▁custom	-4671
▁failed	-4672
▁govern	-4673
▁obligé	-4674
▁project	-4675
▁brothers	-4676
▁learning	-4677
▁lunivers	-4678
▁occasion	-4679
▁neighbors	-4680
▁certainement	-4681
▁reconnaissant	-4682
équ	-4683
▁cab	-4684
▁rej	-4685
▁tir	-4686
▁bird	-4687
▁delle	-4688
▁saved	-4689
▁share	-4690
▁élect	-4691
▁disent	-4692
▁lavons	-4693
▁lonely	-4694
▁compagn	-4695
▁courses	-4696
▁wedding	-4697
▁apprécié	-4698
▁aimezvous	-4699
▁grandpère	-4700
sc	-4701
ifs	-4702
oul	-4703
illé	-4704
rupt	-4705
▁los	-4706
▁vase	-4707
▁vert	-4708
father	-4709
▁corps	-4710
▁forme	-4711
▁gagne	-4712
▁holid	-4713
▁signe	-4714
▁vingt	-4715
▁buying	-4716
▁invent	-4717
▁lights	-4718
▁savent	-4719
▁america	-4720
▁célèbre	-4721
▁missing	-4722
▁vouliez	-4723
▁attraper	-4724
▁magazine	-4725
▁merveill	-4726
▁remarqué	-4727
▁conseillé	-4728
▁lon	-4729
▁anci	-4730
▁chur	-4731
▁desp	-4732
▁pars	-4733
réable	-4734
▁blind	-4735
▁morte	-4736
▁worst	-4737
▁breath	-4738
▁débarr	-4739
▁deserve	-4740
▁essayez	-4741
▁extrême	-4742
▁silenci	-4743
▁sourire	-4744
▁regrette	-4745
▁apartment	-4746
▁recognize	-4747
aded	-4748
lled	-4749
êmes	-4750
▁duty	-4751
▁larg	-4752
▁tast	-4753
▁aware	-4754
▁davis	-4755
▁dirai	-4756
▁enemy	-4757
▁fallu	-4758
▁jirai	-4759
▁museu	-4760
▁chacun	-4761
▁copine	-4762
▁nation	-4763
▁phrase	-4764
▁pleine	-4765
▁soccer	-4766
▁hundred	-4767
▁jealous	-4768
▁spécial	-4769
▁impressed	-4770
▁absolutely	-4771
bes	-4772
ges	-4773
levé	-4774
time	-4775
▁cer	-4776
▁avis	-4777
▁cell	-4778
▁jeter	-4779
fection	-4780
▁douche	-4781
▁pauvre	-4782
▁celuici	-4783
▁couvert	-4784
▁helping	-4785
▁watched	-4786
▁commença	-4787
▁continué	-4788
▁réveillé	-4789
▁sentence	-4790
sy	-4791
vis	-4792
aken	-4793
arch	-4794
▁cla	-4795
▁dieu	-4796
▁dort	-4797
▁dure	-4798
▁gold	-4799
▁levé	-4800
▁lext	-4801
▁légu	-4802
▁pose	-4803
▁york	-4804
▁baiss	-4805
▁clair	-4806
▁gérer	-4807
▁mouth	-4808
▁voice	-4809
▁voilà	-4810
pliquer	-4811
▁auriez	-4812
▁bridge	-4813
▁church	-4814
▁client	-4815
▁explos	-4816
▁locked	-4817
▁mariée	-4818
▁obtenu	-4819
▁parole	-4820
▁parlons	-4821
▁portait	-4822
▁arrested	-4823
▁étatsunis	-4824
rog	-4825
▁burn	-4826
▁déçu	-4827
▁step	-4828
quiète	-4829
▁button	-4830
▁explan	-4831
▁grands	-4832
▁mettez	-4833
▁warned	-4834
▁appoint	-4835
▁cadeaux	-4836
▁subject	-4837
▁feelings	-4838
▁extremely	-4839
▁recherche	-4840
▁population	-4841
▁préférerais	-4842
▁actuellement	-4843
ged	-4844
ove	-4845
cent	-4846
ites	-4847
uler	-4848
▁lev	-4849
▁lour	-4850
▁truc	-4851
▁behav	-4852
▁champ	-4853
▁green	-4854
▁nulle	-4855
▁tight	-4856
▁portes	-4857
▁prices	-4858
▁rentre	-4859
▁sleepy	-4860
▁though	-4861
▁endormi	-4862
▁habitué	-4863
▁painted	-4864
▁neighbor	-4865
▁starting	-4866
lli	-4867
éma	-4868
▁fac	-4869
▁chal	-4870
▁chou	-4871
▁nall	-4872
ccuper	-4873
▁forte	-4874
▁stole	-4875
▁claire	-4876
▁france	-4877
▁lavoir	-4878
▁montré	-4879
▁seront	-4880
▁séjour	-4881
▁arrivée	-4882
▁pleased	-4883
▁american	-4884
▁dessayer	-4885
▁nêtesvous	-4886
▁étiezvous	-4887
dle	-4888
met	-4889
rat	-4890
ège	-4891
ionn	-4892
îmes	-4893
ôtre	-4894
ories	-4895
▁adop	-4896
▁faux	-4897
▁liar	-4898
▁pant	-4899
▁self	-4900
▁sept	-4901
▁awake	-4902
▁dépri	-4903
▁fresh	-4904
▁ought	-4905
▁avance	-4906
▁dépend	-4907
▁adresse	-4908
▁apporté	-4909
▁choisir	-4910
▁conduit	-4911
▁faisais	-4912
▁inquiet	-4913
▁personal	-4914
▁dattendre	-4915
▁translate	-4916
its	-4917
pir	-4918
étud	-4919
▁sea	-4920
▁tow	-4921
▁dimp	-4922
▁lont	-4923
▁rang	-4924
▁fourn	-4925
▁peace	-4926
▁teeth	-4927
▁basket	-4928
▁caused	-4929
▁expert	-4930
▁mienne	-4931
▁notice	-4932
▁slowly	-4933
▁légumes	-4934
▁neither	-4935
▁darrêter	-4936
▁lorsquil	-4937
▁expecting	-4938
▁recommand	-4939
gy	-4940
oun	-4941
rie	-4942
ency	-4943
jets	-4944
▁low	-4945
▁nez	-4946
riger	-4947
▁chef	-4948
▁coop	-4949
▁file	-4950
▁bored	-4951
▁feels	-4952
▁manqu	-4953
▁plays	-4954
▁pours	-4955
reprise	-4956
▁acting	-4957
▁cartes	-4958
▁ennuis	-4959
▁scream	-4960
▁attrapé	-4961
▁conclus	-4962
▁fortune	-4963
▁herself	-4964
▁jallais	-4965
▁langues	-4966
▁préparé	-4967
▁studied	-4968
▁received	-4969
▁dhabitude	-4970
▁découvert	-4971
000	-4972
erie	-4973
ilty	-4974
oken	-4975
tern	-4976
ivent	-4977
érons	-4978
▁amaz	-4979
▁meur	-4980
▁woke	-4981
▁balle	-4982
▁excus	-4983
▁boring	-4984
▁cinéma	-4985
▁ground	-4986
▁guilty	-4987
▁joindre	-4988
▁société	-4989
▁attendez	-4990
▁jattends	-4991
▁lextérieur	-4992
▁rencontrés	-4993
▁sommesnous	-4994
▁extrêmement	-4995
▁grandfather	-4996
bor	-4997
gal	-4998
oes	-4999
vit	-5000
▁fum	-5001
▁squ	-5002
cture	-5003
glise	-5004
usted	-5005
▁cass	-5006
▁feet	-5007
▁till	-5008
ration	-5009
▁entré	-5010
▁exerc	-5011
▁idées	-5012
▁mille	-5013
▁sched	-5014
▁bouton	-5015
▁lamour	-5016
▁realize	-5017
▁sembles	-5018
▁déranger	-5019
▁protéger	-5020
▁expliquer	-5021
▁inconvénient	-5022
feu	-5023
âte	-5024
book	-5025
tead	-5026
uits	-5027
▁god	-5028
ility	-5029
ities	-5030
lable	-5031
raite	-5032
uelle	-5033
▁lots	-5034
▁pair	-5035
ousand	-5036
▁annoy	-5037
▁notes	-5038
▁refus	-5039
▁résol	-5040
▁améric	-5041
▁refusé	-5042
▁apporte	-5043
▁personn	-5044
▁washing	-5045
▁contrôle	-5046
▁thousand	-5047
▁president	-5048
▁convaincre	-5049
▁réellement	-5050
▁comfortable	-5051
▁explanation	-5052
▁lentreprise	-5053
▁gouvernement	-5054
uise	-5055
▁nage	-5056
▁proc	-5057
▁péri	-5058
▁ravi	-5059
▁text	-5060
ffaire	-5061
▁conne	-5062
▁escap	-5063
▁optim	-5064
▁smile	-5065
▁sweet	-5066
▁allerg	-5067
▁celles	-5068
▁museum	-5069
▁élèves	-5070
ustralie	-5071
▁accused	-5072
▁history	-5073
▁october	-5074
▁prevent	-5075
▁product	-5076
▁autorisé	-5077
▁promesse	-5078
▁voitures	-5079
▁permettre	-5080
▁connaissance	-5081
▁sérieusement	-5082
onna	-5083
orme	-5084
▁déç	-5085
▁jal	-5086
astic	-5087
under	-5088
▁crai	-5089
▁paix	-5090
▁posé	-5091
▁salt	-5092
▁brave	-5093
▁climb	-5094
▁dirty	-5095
▁musée	-5096
▁nerve	-5097
▁perte	-5098
▁seven	-5099
▁vatil	-5100
▁choisi	-5101
▁espoir	-5102
▁flight	-5103
▁fruits	-5104
▁instead	-5105
▁ordered	-5106
▁écouter	-5107
▁position	-5108
▁particular	-5109
rêt	-5110
▁os	-5111
chée	-5112
▁ben	-5113
▁ger	-5114
▁bare	-5115
▁joué	-5116
▁lign	-5117
▁vain	-5118
▁croit	-5119
▁hates	-5120
▁soupe	-5121
▁sortie	-5122
▁wallet	-5123
▁étudié	-5124
▁account	-5125
▁descend	-5126
▁morceau	-5127
▁possède	-5128
▁forgotten	-5129
▁mattendais	-5130
▁vegetables	-5131
▁appartement	-5132
chn	-5133
ety	-5134
ple	-5135
haps	-5136
▁lib	-5137
▁vir	-5138
ering	-5139
▁domm	-5140
▁loup	-5141
▁birds	-5142
▁excit	-5143
▁polic	-5144
▁truck	-5145
cemment	-5146
▁animal	-5147
▁cuisin	-5148
▁déjeun	-5149
▁escape	-5150
▁lhôtel	-5151
▁spring	-5152
▁valise	-5153
▁éteint	-5154
▁contrib	-5155
▁cookies	-5156
▁efforts	-5157
▁noticed	-5158
▁perhaps	-5159
▁friendly	-5160
▁portable	-5161
▁prudente	-5162
▁languages	-5163
▁absolument	-5164
édé	-5165
▁fâ	-5166
unte	-5167
▁ali	-5168
▁dom	-5169
▁eut	-5170
▁fif	-5171
moire	-5172
▁ador	-5173
▁tiré	-5174
veille	-5175
▁avion	-5176
▁cream	-5177
▁names	-5178
▁suivi	-5179
▁techn	-5180
cidence	-5181
▁aiment	-5182
▁devait	-5183
▁encour	-5184
▁fasses	-5185
▁fright	-5186
▁memory	-5187
▁soyons	-5188
▁science	-5189
▁agréable	-5190
▁espérons	-5191
▁pourraisje	-5192
ah	-5193
ury	-5194
▁aj	-5195
mait	-5196
▁lat	-5197
▁mou	-5198
▁pén	-5199
▁rév	-5200
endie	-5201
lling	-5202
▁aura	-5203
▁cult	-5204
▁harm	-5205
▁rude	-5206
▁boiss	-5207
▁damis	-5208
▁démén	-5209
▁jambe	-5210
▁lidée	-5211
▁ligne	-5212
▁panne	-5213
▁stood	-5214
▁chauff	-5215
▁crayon	-5216
▁moyens	-5217
▁nearly	-5218
▁pencil	-5219
▁covered	-5220
▁octobre	-5221
▁prendra	-5222
▁chocolat	-5223
▁mensonge	-5224
▁préférée	-5225
▁remettre	-5226
▁récemment	-5227
▁résultats	-5228
▁médicament	-5229
upe	-5230
like	-5231
pose	-5232
▁dév	-5233
▁gam	-5234
suite	-5235
▁grew	-5236
▁rule	-5237
▁trah	-5238
▁accro	-5239
▁sympa	-5240
feuille	-5241
▁circul	-5242
▁prêtes	-5243
▁retire	-5244
▁silent	-5245
▁changes	-5246
▁ensuite	-5247
▁fallait	-5248
▁luimême	-5249
▁manquer	-5250
▁sisters	-5251
▁windows	-5252
▁plaindre	-5253
▁compagnie	-5254
▁promenade	-5255
▁government	-5256
▁luniversité	-5257
▁portefeuille	-5258
neu	-5259
nemi	-5260
▁ble	-5261
▁lob	-5262
▁vus	-5263
▁mett	-5264
▁nose	-5265
▁cards	-5266
▁connu	-5267
▁corde	-5268
▁déter	-5269
▁eight	-5270
▁offre	-5271
▁trucs	-5272
iennent	-5273
isation	-5274
mpêcher	-5275
underst	-5276
▁couper	-5277
▁descri	-5278
▁droite	-5279
▁entraî	-5280
▁paraît	-5281
▁parles	-5282
▁écoute	-5283
périence	-5284
▁chances	-5285
▁forgive	-5286
▁regarda	-5287
▁reviens	-5288
▁proposal	-5289
▁suitcase	-5290
▁connaistu	-5291
▁politique	-5292
▁traverser	-5293
ym	-5294
old	-5295
uel	-5296
urt	-5297
line	-5298
romp	-5299
▁jim	-5300
▁tar	-5301
iture	-5302
▁cens	-5303
▁dési	-5304
▁lave	-5305
▁meal	-5306
conque	-5307
velopp	-5308
▁capit	-5309
▁cruel	-5310
▁event	-5311
▁faits	-5312
▁tough	-5313
▁daider	-5314
▁habite	-5315
▁hiding	-5316
▁pêcher	-5317
▁répond	-5318
▁serons	-5319
▁thatll	-5320
ications	-5321
▁accepté	-5322
▁grandch	-5323
▁occupés	-5324
▁coupable	-5325
▁noubliez	-5326
▁schedule	-5327
▁chocolate	-5328
▁wondering	-5329
▁magnifique	-5330
▁quelconque	-5331
cy	-5332
mat	-5333
oph	-5334
heur	-5335
okes	-5336
▁iss	-5337
chapp	-5338
ieves	-5339
▁inut	-5340
▁obey	-5341
▁quen	-5342
▁sass	-5343
▁saut	-5344
▁cance	-5345
▁congé	-5346
▁foule	-5347
▁grimp	-5348
▁nastu	-5349
▁nestu	-5350
▁pouss	-5351
▁venus	-5352
abilité	-5353
unately	-5354
▁billet	-5355
▁frères	-5356
▁native	-5357
▁picked	-5358
▁single	-5359
▁dropped	-5360
▁volunte	-5361
▁mauvaises	-5362
▁opportunity	-5363
▁attentivement	-5364
lez	-5365
uré	-5366
▁én	-5367
gged	-5368
ural	-5369
venus	-5370
▁assi	-5371
▁bour	-5372
▁exha	-5373
▁moon	-5374
▁repe	-5375
▁romp	-5376
icated	-5377
▁décid	-5378
▁exist	-5379
▁règle	-5380
▁taste	-5381
▁voler	-5382
▁entire	-5383
▁forced	-5384
▁hoping	-5385
▁éveill	-5386
▁attract	-5387
▁sympath	-5388
▁totally	-5389
▁voisins	-5390
▁étaistu	-5391
▁standing	-5392
▁sontelles	-5393
▁considered	-5394
▁entreprise	-5395
▁invitation	-5396
▁bow	-5397
▁fab	-5398
▁ira	-5399
▁neg	-5400
▁pil	-5401
▁pét	-5402
aking	-5403
▁cash	-5404
▁diet	-5405
▁ding	-5406
▁préo	-5407
raight	-5408
érique	-5409
▁autom	-5410
▁chick	-5411
▁fière	-5412
▁morts	-5413
▁paris	-5414
▁tient	-5415
asseoir	-5416
ccasion	-5417
▁crimin	-5418
▁engine	-5419
▁famili	-5420
▁seules	-5421
▁sombre	-5422
▁spoken	-5423
▁vienne	-5424
▁doivent	-5425
▁manager	-5426
▁chouette	-5427
▁nouveaux	-5428
▁straight	-5429
▁following	-5430
▁printemps	-5431
▁misunderst	-5432
▁responsible	-5433
rom	-5434
acer	-5435
▁blo	-5436
▁fed	-5437
▁hyp	-5438
▁afin	-5439
▁denf	-5440
▁mood	-5441
▁skin	-5442
▁éner	-5443
▁group	-5444
▁arbres	-5445
▁bouche	-5446
▁candid	-5447
▁drinks	-5448
▁island	-5449
▁navire	-5450
▁peutil	-5451
▁polite	-5452
▁soient	-5453
▁sports	-5454
▁threat	-5455
▁unique	-5456
▁échoué	-5457
▁purpose	-5458
▁toimême	-5459
▁contract	-5460
▁listened	-5461
▁teachers	-5462
▁collection	-5463
▁expérience	-5464
▁connaissezvous	-5465
ieu	-5466
éli	-5467
isés	-5468
ster	-5469
▁bud	-5470
▁don	-5471
▁yen	-5472
aille	-5473
alité	-5474
▁raté	-5475
▁sûrs	-5476
▁état	-5477
▁couch	-5478
▁envoy	-5479
▁major	-5480
atiques	-5481
ellerai	-5482
▁bright	-5483
▁commis	-5484
▁driver	-5485
▁laider	-5486
▁prisonn	-5487
▁results	-5488
▁salaire	-5489
▁accepter	-5490
▁answered	-5491
▁retraite	-5492
▁concerned	-5493
▁heureuses	-5494
▁verrouill	-5495
▁silencieux	-5496
▁entièrement	-5497
▁fonctionner	-5498
▁correctement	-5499
▁intéressante	-5500
ji	-5501
xim	-5502
iger	-5503
▁jau	-5504
▁unh	-5505
agers	-5506
▁hâte	-5507
▁rope	-5508
▁banan	-5509
▁distu	-5510
▁oppos	-5511
▁prove	-5512
▁laprès	-5513
▁losing	-5514
▁temper	-5515
▁united	-5516
▁léquipe	-5517
▁private	-5518
▁visited	-5519
▁believed	-5520
▁mistaken	-5521
▁returned	-5522
▁spending	-5523
▁dentendre	-5524
▁laprèsmidi	-5525
acé	-5526
hor	-5527
ude	-5528
▁ec	-5529
ldom	-5530
quet	-5531
▁psy	-5532
▁rét	-5533
chant	-5534
êtres	-5535
▁atta	-5536
▁eats	-5537
▁gars	-5538
▁huit	-5539
▁lift	-5540
▁view	-5541
▁weak	-5542
ouille	-5543
▁apply	-5544
▁brush	-5545
▁tears	-5546
▁cousin	-5547
▁devais	-5548
▁mérite	-5549
▁nouvel	-5550
▁orange	-5551
▁seldom	-5552
▁tastes	-5553
▁disparu	-5554
▁license	-5555
▁mémoire	-5556
▁poursui	-5557
▁réalité	-5558
▁confused	-5559
▁convince	-5560
▁derniers	-5561
▁document	-5562
▁passport	-5563
▁policier	-5564
▁navezvous	-5565
▁passeport	-5566
▁particulier	-5567
cus	-5568
key	-5569
merg	-5570
▁hey	-5571
▁map	-5572
▁nét	-5573
▁quà	-5574
ouser	-5575
▁bear	-5576
▁earn	-5577
▁gasp	-5578
▁harv	-5579
▁ness	-5580
▁poem	-5581
▁prog	-5582
▁régl	-5583
▁vidé	-5584
▁cried	-5585
▁extra	-5586
▁forcé	-5587
▁keeps	-5588
▁pleuv	-5589
▁relig	-5590
▁butter	-5591
▁examin	-5592
▁voleur	-5593
▁échapp	-5594
▁devient	-5595
▁excited	-5596
▁parlent	-5597
▁smarter	-5598
▁soldats	-5599
▁soldiers	-5600
▁certainly	-5601
▁understood	-5602
▁appointment	-5603
aud	-5604
ayez	-5605
ller	-5606
quis	-5607
▁nur	-5608
aitil	-5609
▁bisc	-5610
▁clos	-5611
▁huge	-5612
▁amusé	-5613
▁cesse	-5614
▁clock	-5615
▁coupe	-5616
▁shall	-5617
▁stock	-5618
▁attach	-5619
▁bigger	-5620
▁cacher	-5621
▁cloche	-5622
▁hasard	-5623
▁sestil	-5624
▁unfort	-5625
▁blesser	-5626
▁fathers	-5627
▁jackson	-5628
▁lettres	-5629
▁oiseaux	-5630
▁parties	-5631
▁trusted	-5632
▁vitesse	-5633
▁détermin	-5634
▁familiar	-5635
▁upstairs	-5636
▁demandais	-5637
▁grandmère	-5638
cut	-5639
uck	-5640
île	-5641
hier	-5642
igin	-5643
sons	-5644
▁ham	-5645
▁nap	-5646
otion	-5647
▁flat	-5648
▁heat	-5649
▁lazy	-5650
▁weap	-5651
cheter	-5652
▁paire	-5653
▁quart	-5654
▁rains	-5655
▁shoot	-5656
▁spect	-5657
▁commer	-5658
▁failli	-5659
▁frappé	-5660
▁german	-5661
▁middle	-5662
▁rejoin	-5663
▁strict	-5664
▁whatll	-5665
▁accompl	-5666
▁arrivés	-5667
▁chaleur	-5668
▁constru	-5669
▁doctors	-5670
▁détails	-5671
▁escaped	-5672
▁healthy	-5673
▁jattend	-5674
▁audessus	-5675
▁embrassé	-5676
▁internet	-5677
▁conseilla	-5678
▁débrouill	-5679
▁excusezmoi	-5680
▁complaining	-5681
▁débarrasser	-5682
mark	-5683
▁gro	-5684
▁wet	-5685
icked	-5686
oires	-5687
▁band	-5688
▁dann	-5689
▁ener	-5690
▁faud	-5691
▁macc	-5692
▁piqu	-5693
▁pool	-5694
▁roof	-5695
▁shar	-5696
ateurs	-5697
▁adult	-5698
▁ambit	-5699
▁costu	-5700
▁crash	-5701
▁deter	-5702
▁drown	-5703
▁délic	-5704
▁email	-5705
▁poche	-5706
▁vraie	-5707
▁vôtre	-5708
▁épuis	-5709
isément	-5710
▁camion	-5711
▁chaude	-5712
▁goodby	-5713
▁intend	-5714
▁moving	-5715
▁mustve	-5716
▁pantal	-5717
▁plaint	-5718
▁suffit	-5719
▁entered	-5720
▁marrant	-5721
▁obtenir	-5722
▁refaire	-5723
▁détudier	-5724
▁jentends	-5725
▁explained	-5726
▁ourselves	-5727
▁toilettes	-5728
▁voyezvous	-5729
▁grandchose	-5730
tem	-5731
éra	-5732
▁eh	-5733
ares	-5734
èvre	-5735
▁ast	-5736
▁due	-5737
▁joy	-5738
▁ore	-5739
▁ras	-5740
▁shy	-5741
▁uns	-5742
▁élé	-5743
ieved	-5744
▁argu	-5745
▁drug	-5746
▁déte	-5747
▁legs	-5748
▁wise	-5749
ension	-5750
issent	-5751
▁alarm	-5752
▁avert	-5753
▁cheap	-5754
▁ended	-5755
▁incre	-5756
▁lycée	-5757
▁rêves	-5758
▁veste	-5759
ituteur	-5760
ressive	-5761
▁combat	-5762
▁consac	-5763
▁faible	-5764
▁fascin	-5765
▁jaurai	-5766
▁manage	-5767
▁mariés	-5768
▁market	-5769
▁monter	-5770
▁partis	-5771
▁singer	-5772
▁soucie	-5773
▁curious	-5774
▁forever	-5775
▁grandes	-5776
▁jarrive	-5777
▁prenons	-5778
▁tourner	-5779
▁headache	-5780
bum	-5781
uie	-5782
ulé	-5783
▁hi	-5784
▁tâ	-5785
▁té	-5786
▁dry	-5787
▁fan	-5788
▁gor	-5789
▁oil	-5790
▁quy	-5791
▁tex	-5792
▁unf	-5793
gging	-5794
ified	-5795
▁boit	-5796
▁disg	-5797
▁furn	-5798
▁grab	-5799
▁lamp	-5800
▁pisc	-5801
▁toit	-5802
▁caché	-5803
▁crowd	-5804
▁hurts	-5805
ception	-5806
onnable	-5807
retenir	-5808
èrement	-5809
▁coûter	-5810
▁double	-5811
▁resign	-5812
▁todays	-5813
▁unhapp	-5814
▁bagages	-5815
▁blessée	-5816
▁collect	-5817
▁dessert	-5818
▁earthqu	-5819
▁holiday	-5820
▁lecture	-5821
▁naurait	-5822
▁piscine	-5823
▁chanceux	-5824
▁donnerai	-5825
▁fenêtres	-5826
▁presents	-5827
▁construit	-5828
▁devraient	-5829
▁véritable	-5830
▁circulation	-5831
▁médicaments	-5832
▁informations	-5833
▁instructions	-5834
azz	-5835
fic	-5836
iée	-5837
sif	-5838
érir	-5839
▁pon	-5840
▁âgé	-5841
aches	-5842
ouvre	-5843
▁cele	-5844
▁laid	-5845
▁lesp	-5846
▁rock	-5847
▁surf	-5848
▁calls	-5849
▁chess	-5850
▁démar	-5851
▁escal	-5852
▁gradu	-5853
▁jétud	-5854
▁marre	-5855
▁sales	-5856
▁sharp	-5857
▁songs	-5858
▁tenté	-5859
astique	-5860
▁compos	-5861
▁dishes	-5862
▁examen	-5863
▁larmes	-5864
▁offert	-5865
▁précip	-5866
▁sauver	-5867
▁stress	-5868
▁voistu	-5869
▁dimport	-5870
▁dommage	-5871
▁léglise	-5872
▁shocked	-5873
▁campagne	-5874
▁laffaire	-5875
▁amoureuse	-5876
▁ditesvous	-5877
▁suggestion	-5878
▁explication	-5879
▁aimeriezvous	-5880
ear	-5881
pes	-5882
èle	-5883
once	-5884
rige	-5885
▁riz	-5886
▁spl	-5887
ancer	-5888
▁fume	-5889
▁nuts	-5890
▁ours	-5891
▁racc	-5892
▁rice	-5893
▁rose	-5894
issant	-5895
▁brill	-5896
▁charm	-5897
▁diplô	-5898
▁occur	-5899
▁privé	-5900
▁psych	-5901
▁raise	-5902
▁sûres	-5903
▁talks	-5904
▁écriv	-5905
jection	-5906
▁ailles	-5907
▁disait	-5908
▁dreams	-5909
▁paying	-5910
▁riches	-5911
▁saches	-5912
ervation	-5913
▁goodbye	-5914
▁inutile	-5915
▁lavenir	-5916
▁pretend	-5917
▁reposer	-5918
▁secrets	-5919
▁suggère	-5920
▁sweater	-5921
▁canadien	-5922
▁darriver	-5923
▁fighting	-5924
▁jimagine	-5925
▁pourriez	-5926
▁prendrai	-5927
▁punished	-5928
▁confident	-5929
▁depressed	-5930
▁exhausted	-5931
▁réveiller	-5932
▁dapprendre	-5933
▁yourselves	-5934
enu	-5935
ney	-5936
▁mi	-5937
èter	-5938
▁bra	-5939
▁ine	-5940
▁lut	-5941
▁mob	-5942
▁nag	-5943
aître	-5944
esses	-5945
oncer	-5946
ètres	-5947
▁area	-5948
▁bell	-5949
▁lart	-5950
▁maid	-5951
▁tenu	-5952
▁voie	-5953
▁éloi	-5954
▁assey	-5955
▁famil	-5956
▁games	-5957
▁hired	-5958
▁maman	-5959
▁obser	-5960
▁stone	-5961
▁depart	-5962
▁energy	-5963
▁essaya	-5964
▁filled	-5965
▁milieu	-5966
▁player	-5967
▁states	-5968
▁timide	-5969
▁tourne	-5970
▁économ	-5971
▁conduct	-5972
▁costume	-5973
▁disting	-5974
▁importe	-5975
▁invités	-5976
▁letters	-5977
▁pensent	-5978
▁tattend	-5979
▁unhappy	-5980
▁behavior	-5981
▁everyones	-5982
▁pourrions	-5983
▁appartient	-5984
▁university	-5985
▁différentes	-5986
▁embarrassed	-5987
▁précisément	-5988
▁devrionsnous	-5989
bri	-5990
oté	-5991
urb	-5992
▁pê	-5993
quit	-5994
anges	-5995
cuser	-5996
ierai	-5997
rique	-5998
▁cast	-5999
▁furi	-6000
▁king	-6001
▁lady	-6002
▁lead	-6003
▁lenf	-6004
▁nons	-6005
▁path	-6006
▁pneu	-6007
▁quai	-6008
ically	-6009
▁diagn	-6010
▁effic	-6011
▁films	-6012
▁incap	-6013
▁serve	-6014
▁thief	-6015
▁tirer	-6016
▁tooth	-6017
▁batter	-6018
▁gentle	-6019
▁jacket	-6020
▁ontils	-6021
▁pierre	-6022
▁places	-6023
▁arrière	-6024
▁clearly	-6025
▁details	-6026
▁devenue	-6027
▁hearing	-6028
▁matinée	-6029
▁meaning	-6030
▁chansons	-6031
▁essayons	-6032
▁narriver	-6033
▁raconter	-6034
▁continued	-6035
▁meilleurs	-6036
▁policeman	-6037
▁assistance	-6038
▁laustralie	-6039
▁sentiments	-6040
▁complicated	-6041
af	-6042
fa	-6043
ata	-6044
onf	-6045
rès	-6046
orie	-6047
pper	-6048
usse	-6049
▁ing	-6050
▁tap	-6051
asses	-6052
▁furt	-6053
▁inde	-6054
▁prét	-6055
▁sert	-6056
issait	-6057
nergie	-6058
▁couru	-6059
▁guest	-6060
érature	-6061
▁bicycl	-6062
▁calcul	-6063
▁celebr	-6064
▁dabord	-6065
▁départ	-6066
▁dépens	-6067
▁fautil	-6068
▁passen	-6069
▁poison	-6070
▁skiing	-6071
▁bedroom	-6072
▁growing	-6073
▁options	-6074
▁protest	-6075
▁reconnu	-6076
▁realized	-6077
▁retourne	-6078
▁sappelle	-6079
▁abandonné	-6080
▁countries	-6081
▁traveling	-6082
ify	-6083
mbr	-6084
eday	-6085
osen	-6086
▁lay	-6087
▁reç	-6088
▁jaie	-6089
▁mise	-6090
▁tatt	-6091
ession	-6092
habite	-6093
onnaie	-6094
▁aille	-6095
▁album	-6096
▁among	-6097
▁déses	-6098
▁finan	-6099
▁ident	-6100
▁lavez	-6101
▁prise	-6102
▁prêté	-6103
▁betray	-6104
▁easier	-6105
▁econom	-6106
▁incred	-6107
▁murder	-6108
▁record	-6109
▁amazing	-6110
▁imagine	-6111
▁someday	-6112
▁visiter	-6113
formation	-6114
▁commandé	-6115
▁electric	-6116
▁remained	-6117
▁abandonner	-6118
▁bicyclette	-6119
▁confection	-6120
▁possibility	-6121
toi	-6122
▁oh	-6123
chez	-6124
isme	-6125
reux	-6126
▁eau	-6127
▁fal	-6128
▁pin	-6129
▁rab	-6130
sière	-6131
▁avai	-6132
▁diam	-6133
▁juge	-6134
▁rush	-6135
▁sinc	-6136
▁écou	-6137
▁coûté	-6138
▁fréqu	-6139
▁hesit	-6140
▁satur	-6141
▁tombe	-6142
ération	-6143
▁depend	-6144
▁génial	-6145
▁points	-6146
▁remain	-6147
▁régime	-6148
▁vaisse	-6149
▁voyons	-6150
▁écouté	-6151
▁dancing	-6152
▁destroy	-6153
▁further	-6154
▁jusquau	-6155
▁reached	-6156
▁ridicul	-6157
ordinaire	-6158
▁demandez	-6159
▁investig	-6160
▁pareille	-6161
▁ressembl	-6162
▁teaching	-6163
▁relations	-6164
▁everywhere	-6165
▁difficultés	-6166
acy	-6167
igé	-6168
zen	-6169
cice	-6170
▁gaz	-6171
▁roi	-6172
▁déce	-6173
▁hall	-6174
▁nine	-6175
▁remb	-6176
▁étoi	-6177
lément	-6178
▁chère	-6179
▁folle	-6180
▁parie	-6181
▁skier	-6182
▁steal	-6183
▁affect	-6184
▁ceuxci	-6185
▁commit	-6186
▁conven	-6187
▁dirais	-6188
▁fairly	-6189
▁joking	-6190
▁romant	-6191
▁theory	-6192
▁thirst	-6193
▁valeur	-6194
▁étudie	-6195
▁celleci	-6196
▁chicken	-6197
▁chinois	-6198
▁différe	-6199
▁déjeuné	-6200
▁effrayé	-6201
▁arrivera	-6202
▁pantalon	-6203
▁practice	-6204
▁delicious	-6205
▁japonaise	-6206
▁perfectly	-6207
▁responsib	-6208
▁supplément	-6209
uff	-6210
▁gê	-6211
▁ja	-6212
deur	-6213
oker	-6214
ouvé	-6215
rend	-6216
atoes	-6217
eless	-6218
tered	-6219
▁déch	-6220
▁jeux	-6221
▁lemp	-6222
▁liqu	-6223
▁sauv	-6224
action	-6225
▁above	-6226
▁crack	-6227
▁doigt	-6228
▁essai	-6229
▁fixed	-6230
▁gunsh	-6231
▁anyway	-6232
▁dispon	-6233
▁matins	-6234
▁preuve	-6235
▁sétait	-6236
▁washed	-6237
▁échecs	-6238
▁lépoque	-6239
▁miracle	-6240
▁tremble	-6241
▁assister	-6242
▁exercise	-6243
▁veuilles	-6244
▁accidents	-6245
▁available	-6246
▁compliqué	-6247
▁explosion	-6248
▁rencontre	-6249
▁aimeraistu	-6250
▁photograph	-6251
▁connaissait	-6252
▁grandmother	-6253
▁comportement	-6254
unt	-6255
ourv	-6256
rain	-6257
élic	-6258
▁civ	-6259
▁lal	-6260
▁obé	-6261
▁sys	-6262
▁cred	-6263
▁dout	-6264
▁fuji	-6265
▁inse	-6266
▁iron	-6267
▁jail	-6268
▁latt	-6269
▁maît	-6270
▁pred	-6271
▁sofa	-6272
▁auras	-6273
▁barbe	-6274
▁coupé	-6275
▁doors	-6276
▁exemp	-6277
▁judge	-6278
▁mastu	-6279
▁rumor	-6280
▁samed	-6281
▁suppl	-6282
▁élevé	-6283
▁assure	-6284
▁clever	-6285
▁oiseau	-6286
▁option	-6287
▁origin	-6288
▁pardon	-6289
▁petits	-6290
▁sortez	-6291
▁trompé	-6292
▁voisin	-6293
▁belongs	-6294
▁dépourv	-6295
▁fassiez	-6296
▁général	-6297
▁lenfant	-6298
▁montrez	-6299
▁pousser	-6300
▁prévois	-6301
▁similar	-6302
▁smiling	-6303
▁suicide	-6304
▁théorie	-6305
▁denfants	-6306
▁saturday	-6307
▁supermar	-6308
▁whenever	-6309
▁cigarette	-6310
▁furniture	-6311
▁loccasion	-6312
▁supermark	-6313
▁malheureusement	-6314
▁gh	-6315
▁lè	-6316
inte	-6317
ners	-6318
over	-6319
ular	-6320
érêt	-6321
▁emm	-6322
▁fro	-6323
▁sli	-6324
cohol	-6325
▁bite	-6326
▁diss	-6327
▁papa	-6328
▁ratt	-6329
▁size	-6330
ighted	-6331
ulaire	-6332
ulance	-6333
▁accus	-6334
▁causé	-6335
▁envis	-6336
▁issue	-6337
▁jokes	-6338
▁médec	-6339
▁siège	-6340
▁third	-6341
▁wears	-6342
▁coffre	-6343
▁jambes	-6344
▁moteur	-6345
▁pièces	-6346
▁rumeur	-6347
▁résolu	-6348
▁utilis	-6349
▁croistu	-6350
▁parlait	-6351
▁workers	-6352
▁careless	-6353
▁promener	-6354
▁résultat	-6355
▁traduire	-6356
▁violence	-6357
▁conscient	-6358
▁introduce	-6359
▁mempêcher	-6360
▁supermarché	-6361
▁supermarket	-6362
▁profondément	-6363
gth	-6364
ram	-6365
vie	-6366
ieur	-6367
resp	-6368
ûmes	-6369
▁dig	-6370
▁làd	-6371
▁mec	-6372
▁meu	-6373
night	-6374
sique	-6375
▁bull	-6376
▁jazz	-6377
▁lest	-6378
▁paie	-6379
▁sett	-6380
▁vues	-6381
pérais	-6382
▁brisé	-6383
▁forêt	-6384
▁grass	-6385
▁human	-6386
▁mondi	-6387
▁naive	-6388
▁prior	-6389
▁space	-6390
▁speed	-6391
quiéter	-6392
▁altern	-6393
▁burned	-6394
▁insist	-6395
▁system	-6396
▁unlike	-6397
▁within	-6398
▁answers	-6399
▁bonheur	-6400
▁crossed	-6401
▁divorce	-6402
▁mission	-6403
▁projets	-6404
▁répéter	-6405
▁traiter	-6406
▁winning	-6407
▁argument	-6408
▁ennuyeux	-6409
▁feuilles	-6410
▁lumières	-6411
▁semblant	-6412
▁terminée	-6413
▁traversé	-6414
▁delighted	-6415
▁incapable	-6416
▁obviously	-6417
▁attractive	-6418
▁intéressée	-6419
▁démissionner	-6420
abl	-6421
hés	-6422
nom	-6423
cens	-6424
quée	-6425
rage	-6426
▁mic	-6427
▁sex	-6428
anged	-6429
board	-6430
cious	-6431
▁coul	-6432
▁ears	-6433
▁elev	-6434
▁hire	-6435
▁ivre	-6436
▁jadm	-6437
▁laur	-6438
▁picn	-6439
▁plat	-6440
▁secr	-6441
▁serp	-6442
▁stat	-6443
▁syst	-6444
atives	-6445
▁cessé	-6446
▁disag	-6447
▁garer	-6448
▁ghost	-6449
▁queue	-6450
▁rejet	-6451
▁reven	-6452
▁spare	-6453
avaient	-6454
▁assise	-6455
▁cassée	-6456
▁closer	-6457
▁courag	-6458
▁fermez	-6459
▁fermée	-6460
▁grandi	-6461
▁paress	-6462
▁prévoy	-6463
▁sauter	-6464
▁source	-6465
▁touche	-6466
▁treize	-6467
▁complet	-6468
▁contrat	-6469
▁jétudie	-6470
▁natural	-6471
▁believes	-6472
▁concentr	-6473
▁fatigués	-6474
▁làdessus	-6475
▁pleasure	-6476
▁trouvait	-6477
▁pretended	-6478
▁étrangère	-6479
▁différente	-6480
▁malheureux	-6481
▁totalement	-6482
ks	-6483
bly	-6484
bon	-6485
gre	-6486
ian	-6487
ism	-6488
orre	-6489
oust	-6490
uyer	-6491
▁jéc	-6492
▁tat	-6493
agner	-6494
erait	-6495
esome	-6496
light	-6497
mbers	-6498
▁amen	-6499
▁dors	-6500
▁farm	-6501
▁midi	-6502
▁yens	-6503
ataire	-6504
ateful	-6505
▁aurez	-6506
▁emerg	-6507
▁frust	-6508
▁lâche	-6509
▁nurse	-6510
▁récup	-6511
▁réser	-6512
▁video	-6513
▁author	-6514
▁centre	-6515
▁dingue	-6516
▁peuton	-6517
▁search	-6518
▁theyve	-6519
▁tienne	-6520
intéress	-6521
▁atteint	-6522
▁awesome	-6523
▁boisson	-6524
▁comprom	-6525
▁failure	-6526
▁managed	-6527
▁matters	-6528
▁survive	-6529
▁thirsty	-6530
▁toucher	-6531
▁étaitce	-6532
quisition	-6533
▁convient	-6534
▁dentiste	-6535
▁occupées	-6536
▁peinture	-6537
▁viendrai	-6538
▁bienvenue	-6539
▁documents	-6540
▁personnel	-6541
▁populaire	-6542
▁clairement	-6543
▁raisonnable	-6544
▁unfortunately	-6545
bel	-6546
ades	-6547
cles	-6548
gers	-6549
mand	-6550
ores	-6551
▁mel	-6552
iable	-6553
lever	-6554
ouses	-6555
wards	-6556
▁arms	-6557
▁dépl	-6558
▁hill	-6559
▁ille	-6560
▁stun	-6561
▁ayons	-6562
▁badly	-6563
▁facts	-6564
▁fever	-6565
▁offic	-6566
▁reply	-6567
▁usual	-6568
tezvous	-6569
▁alliez	-6570
▁cheese	-6571
▁credit	-6572
▁devint	-6573
▁envers	-6574
▁parked	-6575
▁piquen	-6576
▁pocket	-6577
▁rained	-6578
▁restée	-6579
▁samedi	-6580
▁season	-6581
▁twenty	-6582
▁useful	-6583
▁alcohol	-6584
▁disease	-6585
▁dépensé	-6586
▁menteur	-6587
▁speaker	-6588
▁système	-6589
▁approach	-6590
▁vousmême	-6591
▁laisserai	-6592
▁concentrer	-6593
▁importance	-6594
▁merveilleux	-6595
▁impressionné	-6596
fs	-6597
med	-6598
mée	-6599
nez	-6600
und	-6601
ires	-6602
ètes	-6603
▁dac	-6604
▁equ	-6605
▁rub	-6606
agère	-6607
ician	-6608
mêmes	-6609
rable	-6610
▁banc	-6611
▁beur	-6612
▁clou	-6613
▁copy	-6614
▁hung	-6615
▁noms	-6616
▁soif	-6617
▁thro	-6618
▁unus	-6619
chetoi	-6620
▁costs	-6621
▁célib	-6622
▁deser	-6623
▁dying	-6624
▁hated	-6625
▁maime	-6626
▁monté	-6627
▁sépar	-6628
▁threw	-6629
censeur	-6630
chement	-6631
▁dirige	-6632
▁london	-6633
▁mangez	-6634
▁salary	-6635
▁sommet	-6636
▁unless	-6637
▁écrive	-6638
▁capital	-6639
▁chinese	-6640
▁londres	-6641
▁obligée	-6642
▁occuper	-6643
▁oranges	-6644
▁prouver	-6645
▁bathroom	-6646
▁contrari	-6647
▁experien	-6648
▁expliqué	-6649
▁grateful	-6650
▁pressure	-6651
▁promises	-6652
▁emergency	-6653
▁gentilles	-6654
▁conditions	-6655
▁mentretenir	-6656
▁possibilité	-6657
▁pratiquement	-6658
jam	-6659
oût	-6660
▁pâ	-6661
ayed	-6662
rape	-6663
▁anx	-6664
▁boi	-6665
▁cul	-6666
▁hob	-6667
onses	-6668
▁code	-6669
▁cops	-6670
▁dumb	-6671
▁lâge	-6672
▁négo	-6673
▁rely	-6674
▁remp	-6675
▁viré	-6676
▁frank	-6677
▁gives	-6678
▁influ	-6679
▁pénét	-6680
▁remis	-6681
▁sauvé	-6682
▁vidéo	-6683
▁woods	-6684
▁bouger	-6685
▁denied	-6686
▁humeur	-6687
▁idiote	-6688
▁jaloux	-6689
issement	-6690
▁billets	-6691
▁carried	-6692
▁harvard	-6693
▁imaginé	-6694
▁maisons	-6695
▁partage	-6696
▁accustom	-6697
▁biscuits	-6698
▁elevator	-6699
▁nonsense	-6700
▁poissons	-6701
▁présente	-6702
▁réponses	-6703
▁supporte	-6704
▁unlikely	-6705
▁happiness	-6706
▁puissions	-6707
▁étrangers	-6708
▁frightened	-6709
▁impressionn	-6710
▁intelligente	-6711
gue	-6712
iés	-6713
gnée	-6714
otte	-6715
redi	-6716
ugle	-6717
▁edu	-6718
▁noy	-6719
▁née	-6720
après	-6721
▁aton	-6722
▁doué	-6723
▁détr	-6724
▁indi	-6725
▁jume	-6726
▁neck	-6727
▁sach	-6728
▁vint	-6729
▁becom	-6730
▁cheer	-6731
▁gardé	-6732
▁appear	-6733
▁atelle	-6734
▁compét	-6735
▁dating	-6736
▁doigts	-6737
▁fallen	-6738
▁faudra	-6739
▁mobile	-6740
▁oldest	-6741
▁picnic	-6742
▁planté	-6743
▁rendit	-6744
▁spread	-6745
▁épouse	-6746
entelles	-6747
▁asseoir	-6748
▁drivers	-6749
▁example	-6750
▁request	-6751
▁staring	-6752
▁disputer	-6753
▁thirteen	-6754
▁advantage	-6755
▁programme	-6756
▁vaisselle	-6757
▁changement	-6758
▁couramment	-6759
▁earthquake	-6760
▁passengers	-6761
▁profession	-6762
cky	-6763
oli	-6764
ield	-6765
pare	-6766
▁mél	-6767
▁tsh	-6768
onter	-6769
élior	-6770
▁bomb	-6771
▁bête	-6772
▁ital	-6773
▁jach	-6774
▁loss	-6775
▁race	-6776
▁runs	-6777
▁thin	-6778
arante	-6779
etemps	-6780
▁board	-6781
▁fantô	-6782
▁hiver	-6783
▁jette	-6784
▁marri	-6785
ortable	-6786
▁attemp	-6787
▁contrô	-6788
▁entier	-6789
▁finger	-6790
▁offrir	-6791
▁rarely	-6792
▁sassit	-6793
▁slight	-6794
▁absence	-6795
▁advance	-6796
▁aveugle	-6797
▁falling	-6798
▁meurtre	-6799
▁peindre	-6800
▁touched	-6801
▁utilisé	-6802
▁accepted	-6803
▁gentille	-6804
▁lendroit	-6805
▁progress	-6806
▁gentleman	-6807
▁mavezvous	-6808
▁accustomed	-6809
▁difficiles	-6810
▁passetemps	-6811
▁plaisanter	-6812
▁suspicious	-6813
▁themselves	-6814
do	-6815
lin	-6816
olé	-6817
▁ug	-6818
ases	-6819
aved	-6820
erly	-6821
iant	-6822
inet	-6823
oncé	-6824
onds	-6825
rées	-6826
vres	-6827
apped	-6828
chons	-6829
verse	-6830
▁chic	-6831
▁enqu	-6832
▁pill	-6833
▁sons	-6834
▁tong	-6835
▁ugly	-6836
▁webs	-6837
▁wore	-6838
ercice	-6839
iendra	-6840
ximité	-6841
▁dises	-6842
▁fiers	-6843
▁pants	-6844
▁postp	-6845
▁tatil	-6846
agement	-6847
▁accusé	-6848
▁assume	-6849
▁barely	-6850
▁essaye	-6851
▁lavais	-6852
▁lovely	-6853
▁mathém	-6854
▁propri	-6855
▁remark	-6856
▁volume	-6857
▁dentist	-6858
▁derreur	-6859
▁distrib	-6860
▁foolish	-6861
▁improve	-6862
▁lennemi	-6863
▁oublier	-6864
▁treated	-6865
▁rembours	-6866
▁resterai	-6867
▁sérieuse	-6868
▁viennent	-6869
▁abandoned	-6870
▁according	-6871
▁classroom	-6872
▁montremoi	-6873
▁proximité	-6874
▁recommend	-6875
▁cigarettes	-6876
ég	-6877
aff	-6878
ann	-6879
eté	-6880
orn	-6881
èse	-6882
anta	-6883
oked	-6884
▁pal	-6885
antly	-6886
icted	-6887
iquée	-6888
omach	-6889
▁bran	-6890
▁drag	-6891
▁mecs	-6892
▁moqu	-6893
▁négl	-6894
▁oper	-6895
▁élev	-6896
entils	-6897
étaire	-6898
▁airpl	-6899
▁beaux	-6900
▁brief	-6901
▁crise	-6902
▁diary	-6903
▁dérou	-6904
▁fence	-6905
▁lourd	-6906
▁monte	-6907
▁poème	-6908
▁prize	-6909
▁procé	-6910
▁using	-6911
▁vendu	-6912
▁auprès	-6913
▁beurre	-6914
▁damage	-6915
▁donnez	-6916
▁insult	-6917
▁jumped	-6918
▁mavoir	-6919
▁repair	-6920
▁smells	-6921
▁veniez	-6922
▁bonjour	-6923
▁clients	-6924
▁embrass	-6925
▁jessaye	-6926
▁refuser	-6927
▁soudain	-6928
▁stomach	-6929
▁audience	-6930
▁betrayed	-6931
▁impliqué	-6932
▁masseoir	-6933
▁sensible	-6934
▁stranger	-6935
▁ambulance	-6936
▁avonsnous	-6937
▁découvrir	-6938
▁jespérais	-6939
▁tradition	-6940
▁lacquisition	-6941
▁neighborhood	-6942
ancé	-6943
mais	-6944
mped	-6945
▁gym	-6946
▁rig	-6947
ctual	-6948
ibles	-6949
rance	-6950
ueill	-6951
voyer	-6952
▁bais	-6953
▁bass	-6954
▁bros	-6955
▁bruy	-6956
▁béné	-6957
▁carp	-6958
▁exch	-6959
▁froi	-6960
▁goal	-6961
▁gren	-6962
▁lhum	-6963
▁méth	-6964
▁nent	-6965
▁noon	-6966
▁sush	-6967
▁whis	-6968
▁épau	-6969
etelle	-6970
▁aimez	-6971
▁expri	-6972
▁flics	-6973
▁gorge	-6974
▁gross	-6975
▁haute	-6976
▁manif	-6977
▁ouvre	-6978
▁shape	-6979
irmière	-6980
▁allong	-6981
▁allées	-6982
▁avenir	-6983
▁belles	-6984
▁forest	-6985
▁gardez	-6986
▁membre	-6987
▁smiled	-6988
▁social	-6989
▁sortit	-6990
▁tenait	-6991
▁toilet	-6992
▁trains	-6993
▁vivant	-6994
▁confess	-6995
▁nowhere	-6996
▁retired	-6997
▁appropri	-6998
▁détendre	-6999
▁pouvions	-7000
▁stronger	-7001
▁promesses	-7002
▁suggested	-7003
▁connaissais	-7004
▁everythings	-7005
▁temperature	-7006
▁misunderstand	-7007
mi	-7008
bit	-7009
cri	-7010
gré	-7011
reg	-7012
aled	-7013
ompe	-7014
▁dal	-7015
▁glo	-7016
▁saf	-7017
▁tam	-7018
agues	-7019
allen	-7020
inite	-7021
rêter	-7022
vable	-7023
▁aill	-7024
▁empê	-7025
▁fich	-7026
▁linf	-7027
▁pond	-7028
▁quot	-7029
▁soft	-7030
ashion	-7031
inture	-7032
▁blank	-7033
▁cents	-7034
▁cough	-7035
▁inhab	-7036
▁lexpl	-7037
▁longs	-7038
▁naked	-7039
▁nayez	-7040
▁negot	-7041
▁plate	-7042
▁saint	-7043
▁accent	-7044
▁ancien	-7045
▁corner	-7046
▁courte	-7047
▁critic	-7048
▁crédit	-7049
▁fièvre	-7050
▁handed	-7051
▁horses	-7052
▁lately	-7053
▁master	-7054
▁pleuré	-7055
▁solved	-7056
▁spends	-7057
▁stairs	-7058
▁yellow	-7059
▁éviter	-7060
▁amélior	-7061
▁challen	-7062
▁contrar	-7063
▁curieux	-7064
▁depends	-7065
▁discuté	-7066
▁illegal	-7067
▁mangent	-7068
▁nourrir	-7069
▁questil	-7070
▁souffre	-7071
▁survenu	-7072
▁timbres	-7073
▁attitude	-7074
▁journaux	-7075
▁mappeler	-7076
▁bothering	-7077
▁exception	-7078
▁narrivera	-7079
▁organized	-7080
▁montrezmoi	-7081
▁recognized	-7082
▁rencontrée	-7083
▁mathématiques	-7084
ta	-7085
ilà	-7086
atif	-7087
âtre	-7088
▁diz	-7089
▁nor	-7090
▁sai	-7091
▁van	-7092
acité	-7093
bable	-7094
ctive	-7095
istre	-7096
mploi	-7097
▁dece	-7098
▁fous	-7099
▁menn	-7100
▁phys	-7101
▁poll	-7102
▁quau	-7103
▁scar	-7104
issons	-7105
étique	-7106
▁crier	-7107
▁local	-7108
▁miles	-7109
▁santa	-7110
▁swear	-7111
▁terme	-7112
▁tiend	-7113
▁weigh	-7114
▁écras	-7115
itement	-7116
▁diplom	-7117
▁décida	-7118
▁détend	-7119
▁exprès	-7120
▁highly	-7121
▁houses	-7122
▁lhiver	-7123
▁mignon	-7124
▁mouill	-7125
▁remerc	-7126
▁rempli	-7127
▁restes	-7128
▁tiroir	-7129
▁visité	-7130
▁blessés	-7131
▁celuilà	-7132
▁complex	-7133
▁exemple	-7134
▁puisses	-7135
▁receive	-7136
▁retirer	-7137
▁souffle	-7138
▁wasting	-7139
▁ceinture	-7140
▁mignonne	-7141
▁particip	-7142
▁soudaine	-7143
▁tendance	-7144
▁étranger	-7145
▁assistant	-7146
▁passagers	-7147
▁prisoners	-7148
▁serviette	-7149
▁spectacle	-7150
▁difficulty	-7151
▁température	-7152
▁responsibility	-7153
den	-7154
mis	-7155
▁aî	-7156
aill	-7157
ices	-7158
irez	-7159
rise	-7160
umer	-7161
▁gal	-7162
▁gos	-7163
▁tit	-7164
aired	-7165
andis	-7166
enous	-7167
▁ache	-7168
▁caus	-7169
▁enth	-7170
▁impr	-7171
▁lies	-7172
▁mall	-7173
▁menu	-7174
▁poin	-7175
▁rese	-7176
▁vive	-7177
▁creat	-7178
▁faite	-7179
▁final	-7180
▁hobby	-7181
▁kinds	-7182
▁porté	-7183
▁tenez	-7184
▁épous	-7185
▁bottom	-7186
▁caisse	-7187
▁invite	-7188
▁passez	-7189
▁pressé	-7190
▁pushed	-7191
▁safety	-7192
▁sentie	-7193
▁served	-7194
▁touché	-7195
▁venues	-7196
▁colline	-7197
▁données	-7198
▁ferions	-7199
▁parking	-7200
▁petites	-7201
▁sentait	-7202
▁unusual	-7203
▁ridicule	-7204
▁chauffeur	-7205
▁insurance	-7206
▁voulaient	-7207
▁allonsnous	-7208
▁eventually	-7209
▁improbable	-7210
▁examination	-7211
▁responsabilité	-7212
adé	-7213
een	-7214
▁cd	-7215
▁cy	-7216
oiff	-7217
▁hug	-7218
▁lag	-7219
ocked	-7220
onnée	-7221
âteau	-7222
▁boug	-7223
▁dare	-7224
▁dété	-7225
▁fleu	-7226
▁gram	-7227
▁hein	-7228
▁mons	-7229
▁puzz	-7230
▁quin	-7231
▁tont	-7232
▁visa	-7233
▁crème	-7234
▁douce	-7235
▁déçue	-7236
▁embau	-7237
▁foods	-7238
▁fumée	-7239
▁meals	-7240
▁moust	-7241
▁prévo	-7242
▁rater	-7243
▁songé	-7244
▁sympt	-7245
▁tells	-7246
▁adoles	-7247
▁budget	-7248
▁cercle	-7249
▁cessez	-7250
▁compet	-7251
▁indust	-7252
▁joueur	-7253
▁pulled	-7254
▁saison	-7255
▁souris	-7256
▁tandis	-7257
▁tongue	-7258
▁tshirt	-7259
ettezmoi	-7260
▁blanche	-7261
▁brouill	-7262
▁checked	-7263
▁connect	-7264
▁consult	-7265
▁express	-7266
▁fromage	-7267
▁helpful	-7268
▁hôpital	-7269
▁perform	-7270
▁planned	-7271
▁sentais	-7272
▁écoutez	-7273
▁évident	-7274
▁cleaning	-7275
▁deuxième	-7276
▁divorced	-7277
▁imaginer	-7278
▁marriage	-7279
▁marrêter	-7280
▁patients	-7281
▁shoulder	-7282
▁dernières	-7283
▁rejoindre	-7284
▁introduced	-7285
▁noublierai	-7286
▁prenezvous	-7287
vi	-7288
gner	-7289
iest	-7290
mine	-7291
vant	-7292
vels	-7293
▁lab	-7294
▁lux	-7295
▁rug	-7296
▁army	-7297
▁dame	-7298
▁mars	-7299
▁pomp	-7300
▁pros	-7301
▁stam	-7302
▁traî	-7303
itaire	-7304
rences	-7305
▁attir	-7306
▁cache	-7307
▁decor	-7308
▁décor	-7309
▁emmen	-7310
▁faint	-7311
▁hello	-7312
▁knock	-7313
▁loyer	-7314
▁steak	-7315
▁taije	-7316
▁towel	-7317
▁trous	-7318
chapper	-7319
ciation	-7320
lection	-7321
▁artist	-7322
▁compar	-7323
▁copain	-7324
▁disput	-7325
▁drives	-7326
▁décédé	-7327
▁negoti	-7328
▁ordres	-7329
▁saméli	-7330
▁sarrêt	-7331
▁tempor	-7332
▁unable	-7333
▁verrai	-7334
▁énorme	-7335
▁climbed	-7336
▁crowded	-7337
▁knocked	-7338
▁members	-7339
▁monnaie	-7340
▁pourrai	-7341
▁renvers	-7342
▁accompan	-7343
▁confront	-7344
▁describe	-7345
▁habitude	-7346
▁mondiale	-7347
▁monsieur	-7348
▁persuade	-7349
▁repaired	-7350
▁talented	-7351
▁attendons	-7352
▁disposons	-7353
▁réveillée	-7354
▁succeeded	-7355
▁connaissez	-7356
▁disponible	-7357
▁downstairs	-7358
▁reasonable	-7359
chés	-7360
erté	-7361
irts	-7362
itôt	-7363
roph	-7364
ulte	-7365
▁bol	-7366
▁rat	-7367
▁sla	-7368
▁wif	-7369
bling	-7370
ratil	-7371
▁auss	-7372
▁croi	-7373
▁demi	-7374
▁deny	-7375
▁garé	-7376
▁incl	-7377
▁meth	-7378
▁naie	-7379
▁nhés	-7380
▁pale	-7381
▁perp	-7382
▁poup	-7383
▁site	-7384
▁spot	-7385
iennes	-7386
▁confé	-7387
▁guard	-7388
▁lisez	-7389
▁rompu	-7390
▁shelf	-7391
▁stren	-7392
▁étage	-7393
veloppe	-7394
▁action	-7395
▁allumé	-7396
▁baisse	-7397
▁chosen	-7398
▁cooper	-7399
▁flower	-7400
▁guests	-7401
▁larrêt	-7402
▁poches	-7403
▁profit	-7404
▁quitte	-7405
▁sortes	-7406
▁époque	-7407
▁château	-7408
▁dentrer	-7409
▁deviner	-7410
▁drowned	-7411
▁illness	-7412
▁jhabite	-7413
▁laurais	-7414
▁mothers	-7415
▁prépare	-7416
▁période	-7417
▁raisons	-7418
▁stories	-7419
▁aliments	-7420
▁aussitôt	-7421
▁chanteur	-7422
▁ontelles	-7423
▁potatoes	-7424
▁prudents	-7425
▁refriger	-7426
▁relieved	-7427
▁magazines	-7428
▁croyezvous	-7429
▁chaussettes	-7430
▁célibataire	-7431
▁dimportance	-7432
▁travaillent	-7433
▁construction	-7434
dez	-7435
ene	-7436
gét	-7437
ibi	-7438
mos	-7439
réh	-7440
ste	-7441
âce	-7442
ging	-7443
ifié	-7444
quip	-7445
ware	-7446
▁cad	-7447
champ	-7448
ckets	-7449
itten	-7450
ledge	-7451
ulter	-7452
umeur	-7453
usion	-7454
▁agit	-7455
▁durg	-7456
▁fold	-7457
▁hole	-7458
▁jeté	-7459
▁plac	-7460
▁quas	-7461
▁sain	-7462
▁égal	-7463
ources	-7464
▁acted	-7465
▁amour	-7466
▁armes	-7467
▁awful	-7468
▁coups	-7469
▁drove	-7470
▁désor	-7471
▁fâché	-7472
▁léger	-7473
▁proof	-7474
▁rough	-7475
▁shame	-7476
▁style	-7477
▁tâche	-7478
▁castle	-7479
▁desper	-7480
▁froide	-7481
▁incomp	-7482
▁laissa	-7483
▁létage	-7484
▁manges	-7485
▁minuit	-7486
▁nettoy	-7487
▁orders	-7488
▁pieces	-7489
▁prénom	-7490
▁servir	-7491
▁switch	-7492
▁traite	-7493
▁trembl	-7494
▁aidemoi	-7495
▁arguing	-7496
▁aurions	-7497
▁baisser	-7498
▁sachiez	-7499
▁sattend	-7500
▁smaller	-7501
▁borrowed	-7502
▁derreurs	-7503
▁entendue	-7504
▁moccuper	-7505
▁parfaite	-7506
▁parvenir	-7507
▁punctual	-7508
▁wherever	-7509
▁americans	-7510
▁atteindre	-7511
▁continuez	-7512
▁interrupt	-7513
▁tinquiète	-7514
▁appellemoi	-7515
▁basketball	-7516
▁complained	-7517
▁friendship	-7518
▁lexpliquer	-7519
▁parlezvous	-7520
▁ridiculous	-7521
▁daujourdhui	-7522
▁danniversaire	-7523
ara	-7524
cal	-7525
nel	-7526
raw	-7527
▁câ	-7528
▁mê	-7529
cast	-7530
illy	-7531
oler	-7532
ueux	-7533
èche	-7534
▁caf	-7535
▁lév	-7536
▁oce	-7537
▁odd	-7538
apers	-7539
ening	-7540
euble	-7541
mosph	-7542
ption	-7543
rants	-7544
unate	-7545
▁chop	-7546
▁gate	-7547
▁mode	-7548
▁nord	-7549
▁pist	-7550
▁plai	-7551
▁teen	-7552
arrête	-7553
phants	-7554
éresse	-7555
▁bouge	-7556
▁débat	-7557
▁grâce	-7558
▁guide	-7559
▁kilom	-7560
▁lower	-7561
▁model	-7562
▁parmi	-7563
▁poker	-7564
▁rappe	-7565
▁surle	-7566
▁thick	-7567
stances	-7568
érateur	-7569
▁cambri	-7570
▁chanté	-7571
▁constr	-7572
▁drawer	-7573
▁jaille	-7574
▁quotid	-7575
▁raised	-7576
▁romans	-7577
▁réfrig	-7578
▁trompe	-7579
▁vivons	-7580
▁writer	-7581
▁cleaned	-7582
▁consomm	-7583
▁facture	-7584
▁fashion	-7585
▁fingers	-7586
▁meubles	-7587
▁passait	-7588
▁selling	-7589
▁suivant	-7590
▁sundays	-7591
▁vienstu	-7592
▁violent	-7593
▁ailleurs	-7594
▁airplane	-7595
▁critique	-7596
▁démarrer	-7597
▁dépêcher	-7598
▁enjoying	-7599
▁enseigne	-7600
▁entirely	-7601
▁habituée	-7602
▁mexcuser	-7603
▁nerveuse	-7604
▁occurred	-7605
▁précipit	-7606
▁préoccup	-7607
▁surveill	-7608
▁voudrait	-7609
▁comprenez	-7610
▁contrarié	-7611
▁discussed	-7612
▁délicieux	-7613
▁education	-7614
▁escaliers	-7615
▁regretter	-7616
▁tentendre	-7617
▁commençons	-7618
▁piquenique	-7619
▁surlechamp	-7620
▁traitement	-7621
▁travaillons	-7622
▁understands	-7623
▁refrigerator	-7624
bu	-7625
aves	-7626
etic	-7627
ombe	-7628
ouss	-7629
pend	-7630
reur	-7631
▁blâ	-7632
▁fle	-7633
▁sév	-7634
arest	-7635
ccupe	-7636
ilise	-7637
imate	-7638
ology	-7639
rends	-7640
▁alla	-7641
▁blow	-7642
▁cave	-7643
▁jure	-7644
▁meas	-7645
▁mété	-7646
▁argue	-7647
▁bleed	-7648
▁cover	-7649
▁ennem	-7650
▁fleur	-7651
▁futur	-7652
▁image	-7653
▁moque	-7654
▁perds	-7655
▁ponct	-7656
▁récol	-7657
▁scare	-7658
▁seats	-7659
▁shell	-7660
▁stars	-7661
▁tante	-7662
▁tarte	-7663
▁terms	-7664
▁achète	-7665
▁arriva	-7666
▁beauté	-7667
▁cooked	-7668
▁flying	-7669
▁leader	-7670
▁régler	-7671
▁traité	-7672
▁cheaper	-7673
▁culture	-7674
▁dérangé	-7675
▁gunshot	-7676
▁justice	-7677
▁membres	-7678
▁nearest	-7679
▁nobodys	-7680
▁remarqu	-7681
▁theater	-7682
▁valises	-7683
▁viennes	-7684
▁éveillé	-7685
▁apprécie	-7686
▁determin	-7687
▁disagree	-7688
▁empêcher	-7689
▁evidence	-7690
▁midnight	-7691
▁partager	-7692
▁présence	-7693
▁puissiez	-7694
▁worrying	-7695
▁childhood	-7696
▁destroyed	-7697
▁déteindre	-7698
▁histoires	-7699
▁lincendie	-7700
▁mindiquer	-7701
▁napprécie	-7702
▁suffisant	-7703
▁troisième	-7704
▁conclusion	-7705
▁lorsquelle	-7706
▁newspapers	-7707
▁coincidence	-7708
▁destination	-7709
▁lexpérience	-7710
▁reconnaissante	-7711
wh	-7712
isy	-7713
lam	-7714
anic	-7715
cing	-7716
eral	-7717
oted	-7718
rure	-7719
▁aig	-7720
chite	-7721
ieuse	-7722
ignit	-7723
iling	-7724
lemoi	-7725
order	-7726
pecte	-7727
place	-7728
uteur	-7729
▁appa	-7730
▁brit	-7731
▁lavé	-7732
▁lion	-7733
▁posa	-7734
▁sink	-7735
▁surr	-7736
▁ways	-7737
atelle	-7738
quette	-7739
▁crain	-7740
▁dhier	-7741
▁guère	-7742
▁malch	-7743
▁piège	-7744
▁ravie	-7745
▁tradu	-7746
parents	-7747
rouille	-7748
utation	-7749
▁attrib	-7750
▁ceuxlà	-7751
▁daprès	-7752
▁dérang	-7753
▁forces	-7754
▁habill	-7755
▁plants	-7756
▁sentis	-7757
▁stamps	-7758
ncidence	-7759
▁ajouter	-7760
▁enfance	-7761
▁hurried	-7762
▁ignored	-7763
▁invitée	-7764
▁navions	-7765
▁opening	-7766
▁parcour	-7767
▁pouviez	-7768
▁prepare	-7769
▁recover	-7770
▁relaxed	-7771
▁respond	-7772
▁risques	-7773
▁sagitil	-7774
▁apparent	-7775
▁attacked	-7776
▁conduite	-7777
▁disposer	-7778
▁létagère	-7779
▁massurer	-7780
▁opinions	-7781
▁positive	-7782
▁prendstu	-7783
▁produits	-7784
▁remercie	-7785
▁signific	-7786
▁autorisés	-7787
▁daughters	-7788
▁enseigner	-7789
▁retrouver	-7790
▁récupérer	-7791
▁acceptable	-7792
▁compliment	-7793
▁excellente	-7794
▁connaissons	-7795
▁gentillesse	-7796
▁tremblement	-7797
▁réfrigérateur	-7798
eds	-7799
ril	-7800
chau	-7801
omac	-7802
phab	-7803
word	-7804
▁err	-7805
▁lif	-7806
▁mos	-7807
▁wit	-7808
cieux	-7809
herbe	-7810
ifier	-7811
mploy	-7812
ottes	-7813
rastu	-7814
rated	-7815
▁anal	-7816
▁bags	-7817
▁doul	-7818
▁déco	-7819
▁mans	-7820
▁rate	-7821
▁rele	-7822
▁unde	-7823
▁unif	-7824
iliser	-7825
ologie	-7826
ricité	-7827
▁burst	-7828
▁dizzy	-7829
▁focus	-7830
▁héros	-7831
▁jeans	-7832
▁malin	-7833
▁mêmes	-7834
▁tense	-7835
▁végét	-7836
▁échec	-7837
▁écris	-7838
issante	-7839
lezvous	-7840
▁admire	-7841
▁climat	-7842
▁craign	-7843
▁faisle	-7844
▁incons	-7845
▁jouent	-7846
▁jouons	-7847
▁joyeux	-7848
▁narrow	-7849
▁refusa	-7850
▁repeat	-7851
▁reprod	-7852
▁robbed	-7853
▁wealth	-7854
ducation	-7855
▁appears	-7856
▁artiste	-7857
▁employe	-7858
▁faismoi	-7859
▁incorre	-7860
▁liquide	-7861
▁pardonn	-7862
▁passage	-7863
▁plantes	-7864
▁progrès	-7865
▁prévenu	-7866
▁rappell	-7867
▁réalisé	-7868
▁wounded	-7869
▁amérique	-7870
▁courrier	-7871
▁durgence	-7872
▁efficace	-7873
▁interdit	-7874
▁offended	-7875
▁oreilles	-7876
▁quartier	-7877
▁réveille	-7878
▁cherchais	-7879
▁descendre	-7880
▁interromp	-7881
▁prevented	-7882
▁différents	-7883
▁distinguer	-7884
xy	-7885
fois	-7886
isez	-7887
loge	-7888
unch	-7889
writ	-7890
▁foi	-7891
▁mut	-7892
arian	-7893
ciale	-7894
ettez	-7895
ounce	-7896
ounds	-7897
▁cott	-7898
▁curt	-7899
▁fuss	-7900
▁mend	-7901
▁semb	-7902
▁bague	-7903
▁chand	-7904
▁china	-7905
▁cinqu	-7906
▁coiff	-7907
▁demie	-7908
▁fabri	-7909
▁lense	-7910
▁nalle	-7911
▁resta	-7912
▁rever	-7913
▁socks	-7914
▁tenue	-7915
▁track	-7916
▁vague	-7917
▁beauty	-7918
▁cancel	-7919
▁dollar	-7920
▁ferons	-7921
▁friday	-7922
▁lesson	-7923
▁malent	-7924
▁member	-7925
▁modern	-7926
▁naband	-7927
▁navoir	-7928
▁novels	-7929
▁perdit	-7930
▁pleuve	-7931
▁rendue	-7932
▁représ	-7933
▁resist	-7934
▁rouges	-7935
▁ruined	-7936
▁seated	-7937
▁veille	-7938
itutrice	-7939
mbrasser	-7940
▁apology	-7941
▁apprend	-7942
▁attrape	-7943
▁barking	-7944
▁current	-7945
▁déprimé	-7946
▁laissée	-7947
▁preuves	-7948
▁raconté	-7949
▁studies	-7950
▁théâtre	-7951
▁canceled	-7952
▁contents	-7953
▁definite	-7954
▁	-7955
e	-7956
t	-7957
a	-7958
o	-7959
s	-7960
i	-7961
n	-7962
r	-7963
u	-7964
l	-7965
d	-7966
m	-7967
h	-7968
p	-7969
c	-7970
v	-7971
y	-7972
g	-7973
f	-7974
w	-7975
b	-7976
é	-7977
j	-7978
q	-7979
k	-7980
x	-7981
à	-7982
z	-7983
è	-7984
ê	-7985
ç	-7986
û	-7987
ô	-7988
î	-7989
ù	-7990
â	-7991
’	-7992
0	-7993
«	-7994
»	-7995
